{
  "version": "1.0",
  "truncation": null,
  "padding": null,
  "added_tokens": [
    {
      "id": 0,
      "content": "<eos>",
      "single_word": false,
      "lstrip": false,
      "rstrip": false,
      "normalized": false,
      "special": true
    },
    {
      "id": 1,
      "content": "<pad>",
      "single_word": false,
      "lstrip": false,
      "rstrip": false,
      "normalized": false,
      "special": true
    },
    {
      "id": 2,
      "content": "<unk>",
      "single_word": false,
      "lstrip": false,
      "rstrip": false,
      "normalized": false,
      "special": true
    },
    {
      "id": 3,
      "content": "<bos>",
      "single_word": false,
      "lstrip": false,
      "rstrip": false,
      "normalized": false,
      "special": true
    }
  ],
  "normalizer": {
    "type": "Sequence",
    "normalizers": [
      {
        "type": "NFC"
      }
    ]
  },
  "pre_tokenizer": {
    "type": "ByteLevel",
    "add_prefix_space": false,
    "trim_offsets": true,
    "use_regex": true
  },
  "post_processor": {
    "type": "ByteLevel",
    "add_prefix_space": true,
    "trim_offsets": false,
    "use_regex": true
  },
  "decoder": {
    "type": "ByteLevel",
    "add_prefix_space": true,
    "trim_offsets": true,
    "use_regex": true
  },
  "model": {
    "type": "BPE",
    "dropout": null,
    "unk_token": "<unk>",
    "continuing_subword_prefix": null,
    "end_of_word_suffix": null,
    "fuse_unk": false,
    "byte_fallback": false,
    "ignore_merges": false,
    "vocab": {
      "<eos>": 0,
      "<pad>": 1,
      "<unk>": 2,
      "<bos>": 3,
      "!": 4,
      "\"": 5,
      "#": 6,
      "$": 7,
      "%": 8,
      "&": 9,
      "'": 10,
      "(": 11,
      ")": 12,
      "*": 13,
      "+": 14,
      ",": 15,
      "-": 16,
      ".": 17,
      "/": 18,
      "0": 19,
      "1": 20,
      "2": 21,
      "3": 22,
      "4": 23,
      "5": 24,
      "6": 25,
      "7": 26,
      "8": 27,
      "9": 28,
      ":": 29,
      ";": 30,
      "<": 31,
      "=": 32,
      ">": 33,
      "?": 34,
      "@": 35,
      "A": 36,
      "B": 37,
      "C": 38,
      "D": 39,
      "E": 40,
      "F": 41,
      "G": 42,
      "H": 43,
      "I": 44,
      "J": 45,
      "K": 46,
      "L": 47,
      "M": 48,
      "N": 49,
      "O": 50,
      "P": 51,
      "Q": 52,
      "R": 53,
      "S": 54,
      "T": 55,
      "U": 56,
      "V": 57,
      "W": 58,
      "X": 59,
      "Y": 60,
      "Z": 61,
      "[": 62,
      "\\": 63,
      "]": 64,
      "^": 65,
      "_": 66,
      "`": 67,
      "a": 68,
      "b": 69,
      "c": 70,
      "d": 71,
      "e": 72,
      "f": 73,
      "g": 74,
      "h": 75,
      "i": 76,
      "j": 77,
      "k": 78,
      "l": 79,
      "m": 80,
      "n": 81,
      "o": 82,
      "p": 83,
      "q": 84,
      "r": 85,
      "s": 86,
      "t": 87,
      "u": 88,
      "v": 89,
      "w": 90,
      "x": 91,
      "y": 92,
      "z": 93,
      "{": 94,
      "|": 95,
      "}": 96,
      "~": 97,
      "¡": 98,
      "¢": 99,
      "£": 100,
      "¤": 101,
      "¥": 102,
      "¦": 103,
      "§": 104,
      "¨": 105,
      "©": 106,
      "ª": 107,
      "«": 108,
      "¬": 109,
      "®": 110,
      "¯": 111,
      "°": 112,
      "±": 113,
      "²": 114,
      "³": 115,
      "´": 116,
      "µ": 117,
      "¶": 118,
      "·": 119,
      "¸": 120,
      "¹": 121,
      "º": 122,
      "»": 123,
      "¼": 124,
      "½": 125,
      "¾": 126,
      "¿": 127,
      "À": 128,
      "Á": 129,
      "Â": 130,
      "Ã": 131,
      "Ä": 132,
      "Å": 133,
      "Æ": 134,
      "Ç": 135,
      "È": 136,
      "É": 137,
      "Ê": 138,
      "Ë": 139,
      "Ì": 140,
      "Í": 141,
      "Î": 142,
      "Ï": 143,
      "Ð": 144,
      "Ñ": 145,
      "Ò": 146,
      "Ó": 147,
      "Ô": 148,
      "Õ": 149,
      "Ö": 150,
      "×": 151,
      "Ø": 152,
      "Ù": 153,
      "Ú": 154,
      "Û": 155,
      "Ü": 156,
      "Ý": 157,
      "Þ": 158,
      "ß": 159,
      "à": 160,
      "á": 161,
      "â": 162,
      "ã": 163,
      "ä": 164,
      "å": 165,
      "æ": 166,
      "ç": 167,
      "è": 168,
      "é": 169,
      "ê": 170,
      "ë": 171,
      "ì": 172,
      "í": 173,
      "î": 174,
      "ï": 175,
      "ð": 176,
      "ñ": 177,
      "ò": 178,
      "ó": 179,
      "ô": 180,
      "õ": 181,
      "ö": 182,
      "÷": 183,
      "ø": 184,
      "ù": 185,
      "ú": 186,
      "û": 187,
      "ü": 188,
      "ý": 189,
      "þ": 190,
      "ÿ": 191,
      "Ā": 192,
      "ā": 193,
      "Ă": 194,
      "ă": 195,
      "Ą": 196,
      "ą": 197,
      "Ć": 198,
      "ć": 199,
      "Ĉ": 200,
      "ĉ": 201,
      "Ċ": 202,
      "ċ": 203,
      "Č": 204,
      "č": 205,
      "Ď": 206,
      "ď": 207,
      "Đ": 208,
      "đ": 209,
      "Ē": 210,
      "ē": 211,
      "Ĕ": 212,
      "ĕ": 213,
      "Ė": 214,
      "ė": 215,
      "Ę": 216,
      "ę": 217,
      "Ě": 218,
      "ě": 219,
      "Ĝ": 220,
      "ĝ": 221,
      "Ğ": 222,
      "ğ": 223,
      "Ġ": 224,
      "ġ": 225,
      "Ģ": 226,
      "ģ": 227,
      "Ĥ": 228,
      "ĥ": 229,
      "Ħ": 230,
      "ħ": 231,
      "Ĩ": 232,
      "ĩ": 233,
      "Ī": 234,
      "ī": 235,
      "Ĭ": 236,
      "ĭ": 237,
      "Į": 238,
      "į": 239,
      "İ": 240,
      "ı": 241,
      "Ĳ": 242,
      "ĳ": 243,
      "Ĵ": 244,
      "ĵ": 245,
      "Ķ": 246,
      "ķ": 247,
      "ĸ": 248,
      "Ĺ": 249,
      "ĺ": 250,
      "Ļ": 251,
      "ļ": 252,
      "Ľ": 253,
      "ľ": 254,
      "Ŀ": 255,
      "ŀ": 256,
      "Ł": 257,
      "ł": 258,
      "Ń": 259,
      "Ġt": 260,
      "in": 261,
      "Ġa": 262,
      "he": 263,
      "re": 264,
      "at": 265,
      "al": 266,
      "on": 267,
      "Ġthe": 268,
      "Ġc": 269,
      "or": 270,
      "er": 271,
      "Ġs": 272,
      "en": 273,
      "Ġw": 274,
      "Ġo": 275,
      "Ġin": 276,
      "es": 277,
      "it": 278,
      "is": 279,
      "nd": 280,
      "ing": 281,
      "Ġf": 282,
      "Ġp": 283,
      "Ġb": 284,
      "ed": 285,
      "an": 286,
      "ct": 287,
      "ou": 288,
      "Ġof": 289,
      "Ġn": 290,
      "ar": 291,
      "Ġm": 292,
      "Ġto": 293,
      "Ġ1": 294,
      "Ġd": 295,
      "ion": 296,
      "Ġand": 297,
      "Ġe": 298,
      "ic": 299,
      "le": 300,
      "Ġre": 301,
      "ul": 302,
      "om": 303,
      "Ġth": 304,
      "as": 305,
      "ate": 306,
      "Ġh": 307,
      "se": 308,
      "Ġint": 309,
      "ent": 310,
      "ial": 311,
      "ur": 312,
      "act": 313,
      "Ġ-": 314,
      "ro": 315,
      "Ġl": 316,
      "st": 317,
      "il": 318,
      "ve": 319,
      "Ġcal": 320,
      "ĠĠ": 321,
      "cul": 322,
      "actor": 323,
      "ly": 324,
      "Ġcalcul": 325,
      "if": 326,
      "Ġcalculate": 327,
      "de": 328,
      "factor": 329,
      "factorial": 330,
      "et": 331,
      "Ġg": 332,
      "âĢ": 333,
      "ĠT": 334,
      "Ġis": 335,
      "im": 336,
      "ut": 337,
      "ot": 338,
      "ol": 339,
      "ow": 340,
      "Ġbe": 341,
      "ation": 342,
      "ce": 343,
      "ĠA": 344,
      "Ġy": 345,
      "ig": 346,
      "Ġu": 347,
      "Ġfor": 348,
      "ĠI": 349,
      "ĠS": 350,
      "Ġon": 351,
      "ra": 352,
      "ch": 353,
      "ver": 354,
      "Ġthat": 355,
      "ay": 356,
      "Ġst": 357,
      "ĠC": 358,
      "am": 359,
      "ith": 360,
      "id": 361,
      "Ġif": 362,
      "Ġyou": 363,
      "ir": 364,
      "urn": 365,
      "Ġcon": 366,
      "Ġwith": 367,
      "Ġan": 368,
      "her": 369,
      "Ġret": 370,
      "Ġ*": 371,
      "Ġit": 372,
      "Ġas": 373,
      "Ġ(": 374,
      "Ġel": 375,
      "Ġreturn": 376,
      "el": 377,
      "Ġ<": 378,
      "Ġal": 379,
      "Ġelse": 380,
      "ĠĠĠ": 381,
      "Ġpro": 382,
      "def": 383,
      "ĊĠĠĠ": 384,
      "Ġ->": 385,
      "Ġ<=": 386,
      "Ġwh": 387,
      "ĠM": 388,
      "ad": 389,
      "um": 390,
      "qu": 391,
      "ers": 392,
      "Ġwe": 393,
      "Ġor": 394,
      "Ġare": 395,
      "Ġex": 396,
      "ĠB": 397,
      "ĠP": 398,
      "ist": 399,
      "ge": 400,
      "ri": 401,
      "Ġcom": 402,
      "ĠThe": 403,
      "res": 404,
      "pp": 405,
      "ill": 406,
      "ab": 407,
      "Ġde": 408,
      "Ġhe": 409,
      "ke": 410,
      "Ġv": 411,
      "us": 412,
      "est": 413,
      "th": 414,
      "ess": 415,
      "Ġha": 416,
      "ore": 417,
      "nt": 418,
      "ĠH": 419,
      "os": 420,
      "ĠW": 421,
      "ity": 422,
      "ment": 423,
      "igh": 424,
      "od": 425,
      "op": 426,
      "ive": 427,
      "rom": 428,
      "ld": 429,
      "Ġ2": 430,
      "ac": 431,
      "Ġat": 432,
      "Ġse": 433,
      "âĢĻ": 434,
      "Ġby": 435,
      "Ġsu": 436,
      "ain": 437,
      "ies": 438,
      "ĠF": 439,
      "ĠD": 440,
      "ect": 441,
      "ant": 442,
      "iv": 443,
      "Ġne": 444,
      "un": 445,
      "ĠR": 446,
      "em": 447,
      "Ġr": 448,
      "ter": 449,
      "and": 450,
      "Ġwas": 451,
      "Ġthis": 452,
      "ĠE": 453,
      "Ġle": 454,
      "Ġfrom": 455,
      "art": 456,
      "oc": 457,
      "Ġch": 458,
      "ĠN": 459,
      "ĠL": 460,
      "ight": 461,
      "Ġcan": 462,
      "ĠG": 463,
      "ort": 464,
      "Ġsh": 465,
      "Ġnot": 466,
      "'s": 467,
      "Ġ$": 468,
      "ĠâĢ": 469,
      "ine": 470,
      "Ġhave": 471,
      "ure": 472,
      "ical": 473,
      "Ġsp": 474,
      "end": 475,
      "ions": 476,
      "pl": 477,
      "ust": 478,
      "rou": 479,
      "Ġab": 480,
      "Ġus": 481,
      "Ġma": 482,
      "pt": 483,
      "out": 484,
      "Ġwhe": 485,
      "ould": 486,
      "00": 487,
      "gh": 488,
      "ome": 489,
      "ere": 490,
      "ard": 491,
      "og": 492,
      "ide": 493,
      "per": 494,
      "Ġwor": 495,
      "ĠO": 496,
      "ich": 497,
      "ud": 498,
      "all": 499,
      "ther": 500,
      "Ġk": 501,
      "ag": 502,
      "Ġcomp": 503,
      "our": 504,
      "Ġall": 505,
      "ost": 506,
      "Ġpl": 507,
      "Ġyour": 508,
      "ated": 509,
      "are": 510,
      "ast": 511,
      "The": 512,
      "iz": 513,
      "ans": 514,
      "ell": 515,
      "ĠJ": 516,
      "ations": 517,
      "ult": 518,
      "Ġen": 519,
      "ff": 520,
      "ber": 521,
      "Ġwill": 522,
      "Ġme": 523,
      "Ġim": 524,
      "Ġtheir": 525,
      "ous": 526,
      "ip": 527,
      "ec": 528,
      "Ġad": 529,
      "ction": 530,
      "Ġdo": 531,
      "king": 532,
      "ong": 533,
      "age": 534,
      "ear": 535,
      "Ġ\"": 536,
      "ĠTh": 537,
      "du": 538,
      "Ġwhich": 539,
      "Ġcont": 540,
      "ind": 541,
      "Ġthey": 542,
      "ie": 543,
      "orm": 544,
      "Ġj": 545,
      "ĠU": 546,
      "Ġhas": 547,
      "Ġres": 548,
      "ire": 549,
      "ks": 550,
      "ue": 551,
      "able": 552,
      "Ġbut": 553,
      "cc": 554,
      "ally": 555,
      "Ġout": 556,
      "ble": 557,
      "Ġapp": 558,
      "oo": 559,
      "Ġmore": 560,
      "Ġone": 561,
      "Ġcl": 562,
      "Ġgo": 563,
      "ry": 564,
      "Ġ=": 565,
      "Ġ\\": 566,
      "cl": 567,
      "ap": 568,
      "ary": 569,
      "ice": 570,
      "Ġdis": 571,
      "ime": 572,
      "ike": 573,
      "ance": 574,
      "ence": 575,
      "Ġun": 576,
      "ach": 577,
      "ame": 578,
      "Ġup": 579,
      "int": 580,
      "very": 581,
      "ep": 582,
      "ia": 583,
      "Ġabout": 584,
      "ite": 585,
      "so": 586,
      "Ġso": 587,
      "ĠIn": 588,
      "Ġour": 589,
      "Ġother": 590,
      "ign": 591,
      "Ġman": 592,
      "ack": 593,
      "Ġper": 594,
      "ress": 595,
      "âĢĿ": 596,
      "ents": 597,
      "ru": 598,
      "ose": 599,
      "ass": 600,
      "ition": 601,
      "one": 602,
      "ang": 603,
      "Ġar": 604,
      "ace": 605,
      "vel": 606,
      "Ġev": 607,
      "ount": 608,
      "Ġhis": 609,
      "ase": 610,
      "Ġpart": 611,
      "Ġqu": 612,
      "ile": 613,
      "au": 614,
      "Ġ3": 615,
      "av": 616,
      "now": 617,
      "reat": 618,
      "Ġwhen": 619,
      "ree": 620,
      "Ġnum": 621,
      ").": 622,
      "Ġte": 623,
      "Ġsome": 624,
      "Ġthere": 625,
      "Ġlike": 626,
      "ĠK": 627,
      "low": 628,
      "Ġtr": 629,
      "Ġwere": 630,
      "ound": 631,
      "Ġtw": 632,
      "ens": 633,
      "Ġalso": 634,
      "form": 635,
      "ond": 636,
      "fere": 637,
      "ĠSt": 638,
      "ub": 639,
      "ord": 640,
      "Ġpre": 641,
      "Ġwho": 642,
      "Ġinto": 643,
      "..": 644,
      "Ġthem": 645,
      "Ġmat": 646,
      "erv": 647,
      "ll": 648,
      "Ġbec": 649,
      "Ġsc": 650,
      "nder": 651,
      "ays": 652,
      "Ġimp": 653,
      "ĠâĢľ": 654,
      "Ġpo": 655,
      "Ġ19": 656,
      "Ġits": 657,
      "ph": 658,
      "01": 659,
      "Ġhow": 660,
      "ew": 661,
      "Ġthan": 662,
      "irst": 663,
      "Ġtime": 664,
      "ak": 665,
      "ail": 666,
      "ĠIt": 667,
      "Ġco": 668,
      "Ġany": 669,
      "Ġro": 670,
      "ĠY": 671,
      "Ġthese": 672,
      "te": 673,
      "ough": 674,
      "erm": 675,
      "Ġbet": 676,
      "Ġmo": 677,
      "ish": 678,
      "),": 679,
      "ors": 680,
      "ces": 681,
      "ĠV": 682,
      "ings": 683,
      "ian": 684,
      "ild": 685,
      "Ġdif": 686,
      "Ġknow": 687,
      "Ġrep": 688,
      "Ġtwo": 689,
      "ory": 690,
      "red": 691,
      "ple": 692,
      "Ġover": 693,
      "we": 694,
      "mat": 695,
      "Ġwould": 696,
      "Ġpr": 697,
      "rough": 698,
      "ates": 699,
      "Ġrec": 700,
      "Ġsy": 701,
      "ĠThis": 702,
      "xt": 703,
      "Ġcomm": 704,
      "Ġag": 705,
      "Ġunder": 706,
      "Ġcons": 707,
      "ft": 708,
      "Ġhad": 709,
      "Ġmy": 710,
      "Ġsa": 711,
      "Ġyear": 712,
      "Ġnew": 713,
      "ĠCh": 714,
      "Ġbeen": 715,
      "Ġra": 716,
      "Ġexp": 717,
      "Ġpe": 718,
      "ĠâĢĵ": 719,
      "les": 720,
      "Ġmay": 721,
      "Ġdes": 722,
      "led": 723,
      "ari": 724,
      "ood": 725,
      "Ġtra": 726,
      "mer": 727,
      "Ġequ": 728,
      "Ġno": 729,
      "vers": 730,
      "Ġcol": 731,
      "Ġfirst": 732,
      "ual": 733,
      "Ġwhat": 734,
      "ys": 735,
      "Ġam": 736,
      "Ġfun": 737,
      "ating": 738,
      "ern": 739,
      "Ġpos": 740,
      "ons": 741,
      "ib": 742,
      "Ġrel": 743,
      "rit": 744,
      "oth": 745,
      "Ġneed": 746,
      "ative": 747,
      "Ġacc": 748,
      "row": 749,
      "eth": 750,
      "Ġ4": 751,
      "eg": 752,
      "Ġget": 753,
      "Ġoff": 754,
      "Ġwhere": 755,
      "fter": 756,
      "ater": 757,
      "ause": 758,
      "lect": 759,
      "ject": 760,
      "olog": 761,
      "ook": 762,
      "Ġdiffere": 763,
      "ics": 764,
      "ick": 765,
      "Ġstud": 766,
      "Ġadd": 767,
      "Ġact": 768,
      "Ġbl": 769,
      "Ġprov": 770,
      "ople": 771,
      "Ġthrough": 772,
      "Ġonly": 773,
      "Ġ+": 774,
      "hed": 775,
      "ments": 776,
      "Ġform": 777,
      "ities": 778,
      "Ġval": 779,
      "ne": 780,
      "Ġset": 781,
      "'t": 782,
      "Ġob": 783,
      "own": 784,
      "ific": 785,
      "Ġ5": 786,
      "Ġher": 787,
      "ake": 788,
      "rib": 789,
      "Ġjust": 790,
      "Ġsim": 791,
      "ving": 792,
      "Ġinv": 793,
      "als": 794,
      "old": 795,
      "Ġwork": 796,
      "ween": 797,
      "Ġ201": 798,
      "hen": 799,
      "ck": 800,
      "Ġsub": 801,
      "Ġincl": 802,
      "round": 803,
      "Ġuse": 804,
      "Ġinc": 805,
      "ark": 806,
      "Ġrem": 807,
      "ise": 808,
      "Ġprodu": 809,
      "ram": 810,
      "Ġreg": 811,
      "Ġbetween": 812,
      "ng": 813,
      "ility": 814,
      "ient": 815,
      "ced": 816,
      "ps": 817,
      "Ġhel": 818,
      "ange": 819,
      "Ġpeople": 820,
      "Ġmost": 821,
      "fore": 822,
      "ful": 823,
      "Ġ0": 824,
      "Ġsuch": 825,
      "ove": 826,
      "Ġthen": 827,
      "ric": 828,
      "Ġgen": 829,
      "Ġspec": 830,
      "arn": 831,
      "ob": 832,
      "ert": 833,
      "ĠWe": 834,
      "Ġnumber": 835,
      "Ġem": 836,
      "stem": 837,
      "Ġevery": 838,
      "Ġfe": 839,
      "ible": 840,
      "lic": 841,
      "cess": 842,
      "ular": 843,
      "Ġass": 844,
      "Ġpoint": 845,
      "Ġsm": 846,
      "ational": 847,
      "Ġcould": 848,
      "yp": 849,
      "Ġph": 850,
      "Ġmany": 851,
      "uring": 852,
      "ution": 853,
      "Ġind": 854,
      "ased": 855,
      "sel": 856,
      "In": 857,
      "Ġfind": 858,
      "Ġac": 859,
      "Ġeach": 860,
      "ied": 861,
      "wn": 862,
      "resent": 863,
      "ues": 864,
      "Ġeff": 865,
      "ious": 866,
      "ink": 867,
      "ever": 868,
      "Ġdef": 869,
      "ures": 870,
      "ĠHe": 871,
      "ower": 872,
      "ince": 873,
      "cept": 874,
      "Ġmake": 875,
      "Ġeven": 876,
      "iss": 877,
      "ath": 878,
      "ting": 879,
      "its": 880,
      "Ġx": 881,
      "Ġvari": 882,
      "rac": 883,
      "oy": 884,
      "Ġdisc": 885,
      "ollow": 886,
      "Ġdist": 887,
      "hes": 888,
      "Ġsol": 889,
      "Ġinst": 890,
      "Ġdifferent": 891,
      "Ġexam": 892,
      "bers": 893,
      "ident": 894,
      "Ġatt": 895,
      "other": 896,
      "}{": 897,
      "Ġafter": 898,
      "ĠUn": 899,
      "ically": 900,
      "ss": 901,
      "imes": 902,
      "$$": 903,
      "Ġdec": 904,
      "Ġused": 905,
      "Ġbu": 906,
      "Ġtrans": 907,
      "Ġfl": 908,
      "Ġsystem": 909,
      "Ġ200": 910,
      "Ġsaid": 911,
      "Ġshe": 912,
      "Ġsee": 913,
      "Th": 914,
      "Ġusing": 915,
      "Ġlet": 916,
      "ily": 917,
      "ved": 918,
      "ont": 919,
      "Ġshould": 920,
      "blem": 921,
      "ward": 922,
      "Ġboth": 923,
      "Ġbecause": 924,
      "\\_": 925,
      "Ġsupp": 926,
      "Ġwell": 927,
      "aw": 928,
      "get": 929,
      "ife": 930,
      "Ġthose": 931,
      "Ġsur": 932,
      "Ġdet": 933,
      "Ġresult": 934,
      "velop": 935,
      "Ġfollow": 936,
      "Ġhelp": 937,
      "Ġback": 938,
      "Ġway": 939,
      "ren": 940,
      "uch": 941,
      "Ġcomple": 942,
      "Ġsec": 943,
      "Ġgiv": 944,
      "--": 945,
      "ool": 946,
      "ten": 947,
      "Ġwhile": 948,
      "inal": 949,
      "Ġwant": 950,
      "Ġcount": 951,
      "Âł": 952,
      "Ġ6": 953,
      "Ġproblem": 954,
      "formation": 955,
      "##": 956,
      "arch": 957,
      "Ġke": 958,
      "Ġgra": 959,
      "Ġyears": 960,
      "ists": 961,
      "iew": 962,
      "ited": 963,
      "Ġ&": 964,
      "ict": 965,
      "Ġdoes": 966,
      "cy": 967,
      "Ġcor": 968,
      "Ġsom": 969,
      "ty": 970,
      "Ġent": 971,
      "iel": 972,
      "ĠAl": 973,
      "Ġsame": 974,
      "gan": 975,
      "Ġright": 976,
      "ts": 977,
      "Ġgener": 978,
      "ines": 979,
      "ually": 980,
      "Ġnow": 981,
      "ize": 982,
      "ata": 983,
      "frac": 984,
      "alth": 985,
      "Ġsign": 986,
      "Ġcur": 987,
      "pect": 988,
      "stand": 989,
      "Ġinf": 990,
      "Ġins": 991,
      "Ġvery": 992,
      "ism": 993,
      "ices": 994,
      "ĠWh": 995,
      "Ġexpl": 996,
      "chn": 997,
      "Ġloc": 998,
      "Ġinclud": 999,
      "tle": 1000,
      "ience": 1001,
      "Ġrequ": 1002,
      ".\"": 1003,
      "Ġhigh": 1004,
      "Ġdown": 1005,
      "Ġpers": 1006,
      "Ġfunction": 1007,
      "ves": 1008,
      "Ġlong": 1009,
      "ning": 1010,
      "Ġappro": 1011,
      "Ġplay": 1012,
      "Ġdevelop": 1013,
      "Ġexper": 1014,
      "hip": 1015,
      "the": 1016,
      "Ġdi": 1017,
      "Ġstart": 1018,
      "Ġlearn": 1019,
      "nce": 1020,
      "Ġbeing": 1021,
      "Ġlar": 1022,
      "{\\": 1023,
      "ix": 1024,
      "Ġext": 1025,
      "Ġshow": 1026,
      "Ġfound": 1027,
      "Ġpol": 1028,
      "ined": 1029,
      "Ġend": 1030,
      "ract": 1031,
      "air": 1032,
      "ield": 1033,
      "meric": 1034,
      "ruct": 1035,
      "ider": 1036,
      "ute": 1037,
      "Ġgrou": 1038,
      "com": 1039,
      "ĠPro": 1040,
      "Ġmin": 1041,
      "der": 1042,
      "Ġgreat": 1043,
      "Ġsmall": 1044,
      "Ġcre": 1045,
      "ĠFor": 1046,
      "ĠCom": 1047,
      "ĠAs": 1048,
      "Ġreal": 1049,
      "Ġcent": 1050,
      "day": 1051,
      "chool": 1052,
      "Ġcar": 1053,
      "ĠYou": 1054,
      "und": 1055,
      "Ġhim": 1056,
      "ins": 1057,
      "Ġtoo": 1058,
      "gy": 1059,
      "Ġpartic": 1060,
      "Ġchild": 1061,
      "Ġbefore": 1062,
      "ier": 1063,
      "Ġmuch": 1064,
      "Ġown": 1065,
      "...": 1066,
      "Ġear": 1067,
      "Ġworld": 1068,
      "Ġconst": 1069,
      "ĠAn": 1070,
      "ature": 1071,
      "Ġposs": 1072,
      "Ġinter": 1073,
      "Ġdire": 1074,
      "Ġed": 1075,
      "Ġ7": 1076,
      "iqu": 1077,
      "Ġlead": 1078,
      "ology": 1079,
      "Ġtyp": 1080,
      "}$": 1081,
      "ave": 1082,
      "Ġ10": 1083,
      "oci": 1084,
      "Ġagain": 1085,
      "ĠHow": 1086,
      "land": 1087,
      "Ġinformation": 1088,
      "Ġstr": 1089,
      "ential": 1090,
      "ock": 1091,
      "Ġline": 1092,
      "ead": 1093,
      "Ġimport": 1094,
      "ĠIf": 1095,
      "Ġdid": 1096,
      "ized": 1097,
      "Ġprog": 1098,
      "Ġterm": 1099,
      "ven": 1100,
      "Ġthree": 1101,
      "tern": 1102,
      "Ġbo": 1103,
      "del": 1104,
      "Ġmade": 1105,
      "Ġwithin": 1106,
      "uc": 1107,
      "Ġcalled": 1108,
      "Ġdep": 1109,
      "||": 1110,
      "Ġgu": 1111,
      "ural": 1112,
      "Ġhere": 1113,
      "Ġaround": 1114,
      "Ġgood": 1115,
      "Ġ18": 1116,
      "Ġfam": 1117,
      "Ġ$\\": 1118,
      "ork": 1119,
      "ĠSp": 1120,
      "19": 1121,
      "ĠAmeric": 1122,
      "Ġmon": 1123,
      "self": 1124,
      "Ġread": 1125,
      "Ġserv": 1126,
      "any": 1127,
      "Ġchar": 1128,
      "ather": 1129,
      "eng": 1130,
      "ides": 1131,
      "Ġtake": 1132,
      "Ġref": 1133,
      "ax": 1134,
      "Ġstate": 1135,
      "ness": 1136,
      "ages": 1137,
      "Ġ8": 1138,
      "ope": 1139,
      "Ġhand": 1140,
      "Ġ'": 1141,
      "Ġpat": 1142,
      "Ġser": 1143,
      "ĠAnd": 1144,
      "Ġtechn": 1145,
      "Ġdon": 1146,
      "Ġprocess": 1147,
      "Ġmed": 1148,
      "Ġduring": 1149,
      "Ġche": 1150,
      "ral": 1151,
      "io": 1152,
      "Ġday": 1153,
      "Ġexample": 1154,
      "ases": 1155,
      "Ġmult": 1156,
      "Ġanother": 1157,
      "up": 1158,
      "ef": 1159,
      "ull": 1160,
      "Ġpub": 1161,
      "ĠAr": 1162,
      "âĪ": 1163,
      "arm": 1164,
      "ĠBut": 1165,
      "Ġunderstand": 1166,
      "Ġincre": 1167,
      "ude": 1168,
      "right": 1169,
      "Ġdata": 1170,
      "Ġnumbers": 1171,
      "Ġthough": 1172,
      "gg": 1173,
      ".âĢĿ": 1174,
      "uss": 1175,
      "ivid": 1176,
      "Ġart": 1177,
      "ĠThey": 1178,
      "Ġwater": 1179,
      "_{": 1180,
      "Ġeffect": 1181,
      "Ġaut": 1182,
      "^{": 1183,
      "ants": 1184,
      "read": 1185,
      "ention": 1186,
      "Ġlife": 1187,
      "Ġproper": 1188,
      "Ġ9": 1189,
      "Ġlit": 1190,
      "âĢĶ": 1191,
      "ivers": 1192,
      "Ġop": 1193,
      "ner": 1194,
      "Ġsince": 1195,
      "Ġele": 1196,
      "ars": 1197,
      "Ġz": 1198,
      "Ġproduct": 1199,
      "Ġve": 1200,
      "Ġav": 1201,
      "ething": 1202,
      "hemat": 1203,
      "over": 1204,
      "cent": 1205,
      "Ġcontin": 1206,
      "Ġmem": 1207,
      "Ġpower": 1208,
      "ired": 1209,
      "Ġmust": 1210,
      "ains": 1211,
      "Ġest": 1212,
      "Ġperson": 1213,
      "Ġrese": 1214,
      "itions": 1215,
      "ĠNew": 1216,
      "ted": 1217,
      "ared": 1218,
      "Ġquest": 1219,
      "itive": 1220,
      "aking": 1221,
      "Ġallow": 1222,
      "ex": 1223,
      "000": 1224,
      "ross": 1225,
      ".,": 1226,
      "This": 1227,
      "ctor": 1228,
      "ertain": 1229,
      "Ġide": 1230,
      "Ġstill": 1231,
      "ability": 1232,
      "erest": 1233,
      "rent": 1234,
      "ives": 1235,
      "Ġcommun": 1236,
      "ov": 1237,
      "ee": 1238,
      "riend": 1239,
      "10": 1240,
      "anc": 1241,
      "con": 1242,
      "Ġsomething": 1243,
      "Ġ|": 1244,
      "Ġsay": 1245,
      "Ġvis": 1246,
      "ale": 1247,
      "Ġgiven": 1248,
      "Ġinvol": 1249,
      "ately": 1250,
      "Ġfin": 1251,
      "ety": 1252,
      "Ġvalue": 1253,
      "Ġinteg": 1254,
      "ash": 1255,
      "ctions": 1256,
      "Ġadv": 1257,
      "way": 1258,
      "ality": 1259,
      "ining": 1260,
      "Ġthink": 1261,
      "ason": 1262,
      "to": 1263,
      "line": 1264,
      "Ġsk": 1265,
      "ĠThere": 1266,
      "ify": 1267,
      "ots": 1268,
      "Ġbel": 1269,
      "Ġeas": 1270,
      "Ġclass": 1271,
      "ered": 1272,
      "math": 1273,
      "Ġmight": 1274,
      "Ġorig": 1275,
      "ator": 1276,
      "less": 1277,
      "ĠTo": 1278,
      "Ġbr": 1279,
      "Ġhum": 1280,
      "ah": 1281,
      "dition": 1282,
      "ished": 1283,
      "Ġmain": 1284,
      "Ġca": 1285,
      "Ġsl": 1286,
      "ways": 1287,
      "Ġtop": 1288,
      "nect": 1289,
      "Ġimportant": 1290,
      "Ġwithout": 1291,
      "Ġsecond": 1292,
      "Ġhealth": 1293,
      "Ġpar": 1294,
      "iness": 1295,
      "Ġstand": 1296,
      "Ġ[": 1297,
      "Ġgl": 1298,
      "Ġprogram": 1299,
      "oh": 1300,
      "Ġdesign": 1301,
      "Ġconf": 1302,
      "Ġexpress": 1303,
      "pr": 1304,
      "Ġplan": 1305,
      "Ġsupport": 1306,
      "Ġ20": 1307,
      "Ġgrow": 1308,
      "Ġthings": 1309,
      "Ġless": 1310,
      "ody": 1311,
      "ethod": 1312,
      "ĠCon": 1313,
      "Ġinterest": 1314,
      "Ġoper": 1315,
      "ank": 1316,
      "Ġlast": 1317,
      "Ġanal": 1318,
      "Ġtest": 1319,
      "Ġbest": 1320,
      "ds": 1321,
      "Ġcare": 1322,
      "ĠRe": 1323,
      "ron": 1324,
      "Ġlevel": 1325,
      "ug": 1326,
      "here": 1327,
      "Ġsum": 1328,
      "Ġconsider": 1329,
      "ouse": 1330,
      "Ġprev": 1331,
      "}\\": 1332,
      "Ġrepresent": 1333,
      "ital": 1334,
      ",\"": 1335,
      "ets": 1336,
      "Ġlook": 1337,
      "Ġwrit": 1338,
      "Ġbeh": 1339,
      "ency": 1340,
      "ĠInt": 1341,
      "Ġcle": 1342,
      "ger": 1343,
      "Ġmean": 1344,
      "Ġhapp": 1345,
      "ton": 1346,
      "Ġpop": 1347,
      "ional": 1348,
      "Ġfriend": 1349,
      "ided": 1350,
      "Ġgroup": 1351,
      "Ġschool": 1352,
      "Ġresp": 1353,
      ")$": 1354,
      "Ġoften": 1355,
      "20": 1356,
      "Ġident": 1357,
      "ilar": 1358,
      "Ġincluding": 1359,
      "ently": 1360,
      "Ġcour": 1361,
      "man": 1362,
      "osed": 1363,
      "Ġmeas": 1364,
      "Ġmod": 1365,
      "Ġmet": 1366,
      "ĠSc": 1367,
      "Ġmathemat": 1368,
      "Wh": 1369,
      "Ġbased": 1370,
      "ially": 1371,
      "Ġchang": 1372,
      "Ġhome": 1373,
      "ization": 1374,
      "Ġtri": 1375,
      "We": 1376,
      "ĠQ": 1377,
      "amp": 1378,
      "Ġbus": 1379,
      "Ġchange": 1380,
      "az": 1381,
      "Ġfew": 1382,
      "ĠInd": 1383,
      "ling": 1384,
      "Ġnon": 1385,
      "reen": 1386,
      "Ġhist": 1387,
      "put": 1388,
      "ering": 1389,
      "Ġelect": 1390,
      "Ġorgan": 1391,
      "ĠSh": 1392,
      "Ġmodel": 1393,
      "Ġwee": 1394,
      "Ġalong": 1395,
      "ret": 1396,
      "mon": 1397,
      "oss": 1398,
      "Ġcomb": 1399,
      "Ġgoing": 1400,
      "ade": 1401,
      "Ġmeans": 1402,
      "ior": 1403,
      "Ġlim": 1404,
      "Ġplace": 1405,
      "Ġbuild": 1406,
      "inc": 1407,
      "Ġpresent": 1408,
      "ense": 1409,
      "ium": 1410,
      "ĠHowever": 1411,
      "ption": 1412,
      "Ġocc": 1413,
      "Ġopen": 1414,
      "Ġorder": 1415,
      "Ġdel": 1416,
      "tain": 1417,
      "Ġbas": 1418,
      "Ġpass": 1419,
      "iron": 1420,
      "ĠAt": 1421,
      "ember": 1422,
      "Ġkeep": 1423,
      "ĠSo": 1424,
      "âĢľ": 1425,
      "Ġalways": 1426,
      "Ġpres": 1427,
      "Ġlarge": 1428,
      "Ġdesc": 1429,
      "Ġknown": 1430,
      "ĠCl": 1431,
      "Ġturn": 1432,
      "ote": 1433,
      "ision": 1434,
      "ury": 1435,
      "Ġi": 1436,
      "ĠAd": 1437,
      "rol": 1438,
      "irc": 1439,
      "Ġconnect": 1440,
      "âĢĵ": 1441,
      "Ġseem": 1442,
      "Ġconcept": 1443,
      "Ġrest": 1444,
      "alk": 1445,
      "Ġreport": 1446,
      "ration": 1447,
      "Ġarea": 1448,
      "Ġcase": 1449,
      "Ġmethod": 1450,
      "Ġbetter": 1451,
      "bs": 1452,
      "Ġdeterm": 1453,
      "Ġcomput": 1454,
      "Ġpossible": 1455,
      "Ġstudents": 1456,
      "Ġstudy": 1457,
      "gether": 1458,
      "Ġtogether": 1459,
      "ĠĠĠĠ": 1460,
      "omen": 1461,
      "ination": 1462,
      "kes": 1463,
      "Ġmark": 1464,
      "ĠThese": 1465,
      "orn": 1466,
      "ĠEx": 1467,
      "lying": 1468,
      "Ġdra": 1469,
      "Ġrun": 1470,
      "lish": 1471,
      "ccess": 1472,
      "Ġprob": 1473,
      "ames": 1474,
      "Ġsing": 1475,
      "gin": 1476,
      "ording": 1477,
      "Ġgover": 1478,
      "par": 1479,
      "Ġbre": 1480,
      ",âĢĿ": 1481,
      "ians": 1482,
      "ĠWhen": 1483,
      "Ġpur": 1484,
      "Ġsit": 1485,
      "ĠIs": 1486,
      "Ġpract": 1487,
      "Ġtry": 1488,
      "Ġpost": 1489,
      "iversity": 1490,
      "oint": 1491,
      "ither": 1492,
      "me": 1493,
      "Ġprof": 1494,
      "ĠZ": 1495,
      "Ġspace": 1496,
      "Ġmar": 1497,
      "Ġcommon": 1498,
      "It": 1499,
      "ergy": 1500,
      "ĠDe": 1501,
      "mb": 1502,
      "Ġcertain": 1503,
      "Ġiss": 1504,
      "Ġopp": 1505,
      "Ġlist": 1506,
      "ified": 1507,
      "ero": 1508,
      "plic": 1509,
      "Ġperform": 1510,
      "sc": 1511,
      "Ġspe": 1512,
      "Ġchildren": 1513,
      "ĠX": 1514,
      "Ġunt": 1515,
      "Ġdirect": 1516,
      "Ġaff": 1517,
      "ples": 1518,
      "ĠThat": 1519,
      "Ġdue": 1520,
      "Ġstep": 1521,
      "urther": 1522,
      "Ġfour": 1523,
      "Now": 1524,
      "Ġfil": 1525,
      "Ġindivid": 1526,
      "Ġsqu": 1527,
      "Ġprot": 1528,
      "Ġparticular": 1529,
      "Ġcomplex": 1530,
      "Ġgovern": 1531,
      "Ġspecial": 1532,
      "Ġ/": 1533,
      "xim": 1534,
      "Ġlo": 1535,
      "rodu": 1536,
      "Ġinde": 1537,
      "Ġpri": 1538,
      "Ġtak": 1539,
      "acter": 1540,
      "ulation": 1541,
      "sw": 1542,
      "app": 1543,
      "Ġlittle": 1544,
      "thing": 1545,
      "Ġfactor": 1546,
      "Ġlaw": 1547,
      "Ġfollowing": 1548,
      "ĠAmerican": 1549,
      "Ġ12": 1550,
      "ids": 1551,
      "Ġfeel": 1552,
      "Ġeng": 1553,
      "**": 1554,
      "Ġloo": 1555,
      "âĢ¢": 1556,
      "Ġpublic": 1557,
      "Ġreally": 1558,
      "Ġ.": 1559,
      "Ġaddition": 1560,
      "Ġtimes": 1561,
      "ique": 1562,
      "raph": 1563,
      "Ġmove": 1564,
      "Ġside": 1565,
      "Ġproject": 1566,
      "Ġnext": 1567,
      "ploy": 1568,
      "viron": 1569,
      "esp": 1570,
      "Ġavail": 1571,
      "12": 1572,
      "Ġlight": 1573,
      "Ġcap": 1574,
      "Ġcurrent": 1575,
      "ental": 1576,
      "outh": 1577,
      "utions": 1578,
      "Ġagainst": 1579,
      "Ġpot": 1580,
      "Ġvalues": 1581,
      "of": 1582,
      "ials": 1583,
      "ĠSe": 1584,
      "Ġcome": 1585,
      "Ġfood": 1586,
      "Ġbig": 1587,
      "Ġ15": 1588,
      "Ġmaking": 1589,
      "Ġtreat": 1590,
      "To": 1591,
      "Ġpoints": 1592,
      "ived": 1593,
      "ivity": 1594,
      "Ġindividual": 1595,
      "Ġput": 1596,
      "Ġobject": 1597,
      "}}": 1598,
      "Ġfield": 1599,
      "Ġsever": 1600,
      "Ġmag": 1601,
      "Ġredu": 1602,
      "illion": 1603,
      "Ġ{": 1604,
      "Ġenergy": 1605,
      "Ġfree": 1606,
      "Ġ199": 1607,
      "ocial": 1608,
      "ries": 1609,
      "Ġmus": 1610,
      "be": 1611,
      "orth": 1612,
      "ane": 1613,
      "11": 1614,
      "Ġtem": 1615,
      "ik": 1616,
      "ma": 1617,
      "ffic": 1618,
      "rist": 1619,
      "ĠEng": 1620,
      "ocus": 1621,
      "Ġhaving": 1622,
      "Ġleft": 1623,
      "Ġfact": 1624,
      "Ġland": 1625,
      "ĠBy": 1626,
      "Ġold": 1627,
      "Ġuntil": 1628,
      "Ġfamily": 1629,
      "ta": 1630,
      "Ġ$$": 1631,
      "Ġbelie": 1632,
      "omet": 1633,
      "Ġinit": 1634,
      "ĠPh": 1635,
      "Ġbusiness": 1636,
      "Ġname": 1637,
      "Ġleg": 1638,
      "ients": 1639,
      "Ġprop": 1640,
      "Ġsimilar": 1641,
      "ences": 1642,
      "angu": 1643,
      "Ġresearch": 1644,
      "Ġconc": 1645,
      "agine": 1646,
      "ised": 1647,
      "ances": 1648,
      "Ġcall": 1649,
      "Ġcell": 1650,
      "Ġbecome": 1651,
      "Ġresults": 1652,
      "not": 1653,
      "Ġseveral": 1654,
      "Ġhead": 1655,
      "Ġrev": 1656,
      "aces": 1657,
      "Ġhard": 1658,
      "lo": 1659,
      "Ġgive": 1660,
      "med": 1661,
      "Ġprovide": 1662,
      "arent": 1663,
      "Ġmonth": 1664,
      "Ġamong": 1665,
      "ext": 1666,
      "Ġnear": 1667,
      "iod": 1668,
      "Ġden": 1669,
      "Ġavailable": 1670,
      "ably": 1671,
      "Ġteam": 1672,
      "Ġvarious": 1673,
      "Ġphys": 1674,
      "ending": 1675,
      "Ġris": 1676,
      "ĠCol": 1677,
      "conom": 1678,
      "hor": 1679,
      "Ġtot": 1680,
      "err": 1681,
      "Ġrelations": 1682,
      "Ġoriginal": 1683,
      "Ġstruct": 1684,
      "Ġdev": 1685,
      "Ġsuccess": 1686,
      "Ġabove": 1687,
      "Ġwhether": 1688,
      "ables": 1689,
      "ĠPl": 1690,
      "eral": 1691,
      "Ġhuman": 1692,
      "Ġopt": 1693,
      "Ġbra": 1694,
      "vironment": 1695,
      "ĠâĢĺ": 1696,
      "mit": 1697,
      "Ġequation": 1698,
      "Ġrad": 1699,
      "Ġcost": 1700,
      "ware": 1701,
      "$,": 1702,
      "tt": 1703,
      "lease": 1704,
      "ards": 1705,
      "Ġdiscuss": 1706,
      "Ġgr": 1707,
      "ories": 1708,
      "ission": 1709,
      "Ġfocus": 1710,
      "hers": 1711,
      "Ġwhy": 1712,
      "ively": 1713,
      "Ġrece": 1714,
      "Ġobs": 1715,
      "Ġinvest": 1716,
      "atch": 1717,
      "rop": 1718,
      "Ġapplic": 1719,
      "As": 1720,
      "stit": 1721,
      "$.": 1722,
      "jor": 1723,
      "Ġproblems": 1724,
      "Ġcreat": 1725,
      "lished": 1726,
      "aring": 1727,
      "ox": 1728,
      "Ġnever": 1729,
      "Ġhig": 1730,
      "ats": 1731,
      "Ġlocal": 1732,
      "ĠUniversity": 1733,
      "text": 1734,
      "atural": 1735,
      "iving": 1736,
      "Ġbody": 1737,
      "ann": 1738,
      "for": 1739,
      "Ġquestion": 1740,
      "Ġet": 1741,
      "by": 1742,
      "aster": 1743,
      "Ġinclude": 1744,
      "wards": 1745,
      "ected": 1746,
      "Ġimpro": 1747,
      "18": 1748,
      "Ġfre": 1749,
      "ength": 1750,
      "Ġprom": 1751,
      "Ġyoung": 1752,
      "ipp": 1753,
      "ĠOr": 1754,
      "Ġexist": 1755,
      "Ġworking": 1756,
      "Ġacross": 1757,
      "wh": 1758,
      "ird": 1759,
      "Ġable": 1760,
      "rix": 1761,
      "iting": 1762,
      "Ġview": 1763,
      "ray": 1764,
      "Ġeduc": 1765,
      "left": 1766,
      "Ġben": 1767,
      "Ġant": 1768,
      "Ġmultip": 1769,
      "ĠFr": 1770,
      "oun": 1771,
      "Ġsays": 1772,
      "atic": 1773,
      "Ġfull": 1774,
      "Ġothers": 1775,
      "Ġang": 1776,
      "Ġweek": 1777,
      "Ġcreate": 1778,
      "Ġmater": 1779,
      "Ġver": 1780,
      "Ġcontrol": 1781,
      "St": 1782,
      "Ġbro": 1783,
      "iver": 1784,
      "oms": 1785,
      "Ġansw": 1786,
      "Ġsw": 1787,
      "Ġdescrib": 1788,
      "50": 1789,
      "'re": 1790,
      "Ġdays": 1791,
      "omes": 1792,
      "use": 1793,
      "Ġcontain": 1794,
      "If": 1795,
      "Ġdiff": 1796,
      "por": 1797,
      "Ġvol": 1798,
      "ged": 1799,
      "ortun": 1800,
      "ina": 1801,
      "Ġlow": 1802,
      "ĠAll": 1803,
      "Ġhold": 1804,
      "Ġstre": 1805,
      "els": 1806,
      "Ġpa": 1807,
      "(\\": 1808,
      "ĠâĢĶ": 1809,
      "Ġbook": 1810,
      "my": 1811,
      "erc": 1812,
      "ĠOn": 1813,
      "though": 1814,
      "ms": 1815,
      "Ġcr": 1816,
      "Ġkind": 1817,
      "Ġlater": 1818,
      "imate": 1819,
      "Ġess": 1820,
      "30": 1821,
      "min": 1822,
      "Ġenough": 1823,
      "Ġterms": 1824,
      "Ġ:": 1825,
      "ours": 1826,
      "----": 1827,
      "ĠBl": 1828,
      "Ġeither": 1829,
      "Ġcontinu": 1830,
      "Ġappear": 1831,
      "ources": 1832,
      "Ġsingle": 1833,
      "ills": 1834,
      "Ġfund": 1835,
      "alf": 1836,
      "val": 1837,
      "Ġremain": 1838,
      "Ġfunctions": 1839,
      "Ġfurther": 1840,
      "Ġtre": 1841,
      "Ġbegin": 1842,
      "Ġleast": 1843,
      "Ġmil": 1844,
      "Ġ16": 1845,
      "ĠShe": 1846,
      "oot": 1847,
      "Ġshort": 1848,
      "ohn": 1849,
      "ditions": 1850,
      "Ġder": 1851,
      "ored": 1852,
      "Ġsignific": 1853,
      "ĠBe": 1854,
      "ule": 1855,
      "oring": 1856,
      "Ġmeasure": 1857,
      "Ġlangu": 1858,
      "ges": 1859,
      "Ġdri": 1860,
      "Ġens": 1861,
      "Ġpercent": 1862,
      "ument": 1863,
      "sp": 1864,
      "Ġsure": 1865,
      "Ġgame": 1866,
      "ape": 1867,
      "ĠWith": 1868,
      "urs": 1869,
      "ological": 1870,
      "Ġtotal": 1871,
      "Ġearly": 1872,
      "ights": 1873,
      "Ġrespect": 1874,
      "Ġeconom": 1875,
      "Ġfar": 1876,
      "ley": 1877,
      "Ġgovernment": 1878,
      "Ġnorm": 1879,
      "ler": 1880,
      "icle": 1881,
      "idd": 1882,
      "Ġask": 1883,
      "ww": 1884,
      "cing": 1885,
      "let": 1886,
      "Ġ17": 1887,
      "Ġpotential": 1888,
      "Ġamount": 1889,
      "Ġtell": 1890,
      "ended": 1891,
      "Ġfore": 1892,
      "Ġaccess": 1893,
      "):": 1894,
      "Ġdefin": 1895,
      "ateg": 1896,
      "ĠLe": 1897,
      "Ġdistrib": 1898,
      "Ġdiv": 1899,
      "lection": 1900,
      "enn": 1901,
      "aut": 1902,
      "Ġcomplete": 1903,
      "ume": 1904,
      "ograph": 1905,
      "work": 1906,
      "Ġair": 1907,
      "Ġperiod": 1908,
      "Ġchall": 1909,
      "br": 1910,
      "For": 1911,
      "orts": 1912,
      "aim": 1913,
      "ource": 1914,
      "Ġlove": 1915,
      "Ġcirc": 1916,
      "Ġrelationship": 1917,
      "Ġmajor": 1918,
      "Ġevent": 1919,
      "oney": 1920,
      "ĠRes": 1921,
      "Ġassoci": 1922,
      "rap": 1923,
      "ties": 1924,
      "co": 1925,
      "ilities": 1926,
      "__": 1927,
      "Ġexperience": 1928,
      "Ġinstead": 1929,
      "Ġintern": 1930,
      "Ġtoday": 1931,
      "Ġever": 1932,
      "Ġseries": 1933,
      "etic": 1934,
      "face": 1935,
      "Ġdevelopment": 1936,
      "ĠWhat": 1937,
      "Ġneg": 1938,
      "Ġcaus": 1939,
      "ĠUnited": 1940,
      "Ġcult": 1941,
      "Ġsequ": 1942,
      "Ġpositive": 1943,
      "Ġpain": 1944,
      "Ġemploy": 1945,
      "idence": 1946,
      "Ġdise": 1947,
      "ggest": 1948,
      "Ġwr": 1949,
      "Ġenc": 1950,
      "side": 1951,
      "Ġ11": 1952,
      "Ġsaf": 1953,
      "Ġcho": 1954,
      "ustom": 1955,
      "Ġaway": 1956,
      "Ġsocial": 1957,
      "Ġtype": 1958,
      "Ġlog": 1959,
      "mathb": 1960,
      "Ġequal": 1961,
      "Ġmakes": 1962,
      "imal": 1963,
      "))": 1964,
      "Ġclose": 1965,
      "Ġupon": 1966,
      "Ġenvironment": 1967,
      "ready": 1968,
      "cer": 1969,
      "rt": 1970,
      "ĠOne": 1971,
      "ledge": 1972,
      "ring": 1973,
      "Ġcharacter": 1974,
      "Ġnecess": 1975,
      "ference": 1976,
      "ĠCan": 1977,
      "ysis": 1978,
      "istic": 1979,
      "Ġlearning": 1980,
      "ĠChrist": 1981,
      "verage": 1982,
      "Ġpress": 1983,
      "ER": 1984,
      "Ġcomes": 1985,
      "ogn": 1986,
      "Ġcountry": 1987,
      "201": 1988,
      "ula": 1989,
      "sequ": 1990,
      "Ġworks": 1991,
      "Ġmen": 1992,
      "Ġgeneral": 1993,
      "Ġonce": 1994,
      "ĠUS": 1995,
      "Ġexact": 1996,
      "ush": 1997,
      "Ġwomen": 1998,
      "Ġsuggest": 1999,
      "Ġspecific": 2000,
      "15": 2001,
      "ĠMar": 2002,
      "Ġbelow": 2003,
      "Ġpast": 2004,
      "lu": 2005,
      "Ġpay": 2006,
      "An": 2007,
      "ĠLet": 2008,
      "bra": 2009,
      "ym": 2010,
      "Ġhistory": 2011,
      "16": 2012,
      "Ġinterv": 2013,
      "Ġconditions": 2014,
      "Ġtool": 2015,
      "izing": 2016,
      "Ġstrong": 2017,
      "Ġestab": 2018,
      "yn": 2019,
      "ising": 2020,
      "ection": 2021,
      "unt": 2022,
      "elf": 2023,
      "Ġmeet": 2024,
      "Ġcorre": 2025,
      "Ġcrit": 2026,
      "ĠTe": 2027,
      "Ġpolit": 2028,
      "Ġalready": 2029,
      "Ġ`": 2030,
      "asing": 2031,
      "Ġann": 2032,
      "Ġsimple": 2033,
      "Ġnatural": 2034,
      "Ġsize": 2035,
      "uture": 2036,
      "Ġwords": 2037,
      "osp": 2038,
      "augh": 2039,
      "olution": 2040,
      "Ġlot": 2041,
      "ĠCo": 2042,
      "ales": 2043,
      "ĠCent": 2044,
      "Ġcourse": 2045,
      "Ġgot": 2046,
      "str": 2047,
      "ĠJohn": 2048,
      "ĠNow": 2049,
      "Ġbox": 2050,
      "ĠMay": 2051,
      "igure": 2052,
      "ĠTr": 2053,
      "aps": 2054,
      "orld": 2055,
      "play": 2056,
      "Ġrecord": 2057,
      "Ġlab": 2058,
      "set": 2059,
      "âĢ¦": 2060,
      "Ġchanges": 2061,
      "ival": 2062,
      "Ġmarket": 2063,
      "Ġnet": 2064,
      "Ġactually": 2065,
      "utes": 2066,
      "Ġregard": 2067,
      "most": 2068,
      "Ġabs": 2069,
      "yle": 2070,
      "ott": 2071,
      "Ġfac": 2072,
      "Ġaccount": 2073,
      "part": 2074,
      "Ġcompany": 2075,
      "eter": 2076,
      "Ġtext": 2077,
      "Ġyet": 2078,
      "ators": 2079,
      "ails": 2080,
      "Ġareas": 2081,
      "Ġclear": 2082,
      "Ġtrue": 2083,
      "gen": 2084,
      "Ġâ": 2085,
      "resp": 2086,
      "Ġmot": 2087,
      "Ġsystems": 2088,
      "Ġlength": 2089,
      "So": 2090,
      "Ġfriends": 2091,
      "200": 2092,
      "une": 2093,
      "pend": 2094,
      "Ġvers": 2095,
      "Ġcommunity": 2096,
      "ires": 2097,
      "Ġwin": 2098,
      "aves": 2099,
      "Ġsignificant": 2100,
      "Ġzero": 2101,
      "oid": 2102,
      "ĠÎ": 2103,
      "ules": 2104,
      "ĠStates": 2105,
      "ney": 2106,
      "Ġkey": 2107,
      "Ġ30": 2108,
      "ĠGod": 2109,
      "Ġbi": 2110,
      "Ġsound": 2111,
      "Ġdom": 2112,
      "Ġsat": 2113,
      "Ġ14": 2114,
      "Ġdoesn": 2115,
      "ĠNo": 2116,
      "ample": 2117,
      "atures": 2118,
      "Ġstat": 2119,
      "14": 2120,
      "Ġidea": 2121,
      "Ġindust": 2122,
      "Ġflow": 2123,
      "ĠEur": 2124,
      "Ġill": 2125,
      "Ġreason": 2126,
      "Ġphot": 2127,
      "fect": 2128,
      "Ġrequire": 2129,
      "Ġprovided": 2130,
      "agement": 2131,
      "Ġmembers": 2132,
      "=\\": 2133,
      "Ġhowever": 2134,
      "Ġways": 2135,
      "Ġthought": 2136,
      "What": 2137,
      "lement": 2138,
      "mp": 2139,
      "ters": 2140,
      "Ġauthor": 2141,
      "Ġfr": 2142,
      "Ġrather": 2143,
      "omm": 2144,
      "ĠâĪ": 2145,
      "Ġmass": 2146,
      "Ġbenef": 2147,
      "Ġunderstanding": 2148,
      "Ġentire": 2149,
      "lex": 2150,
      "Ġball": 2151,
      "Ġ...": 2152,
      "selves": 2153,
      "rict": 2154,
      "Ġhalf": 2155,
      "Ġgroups": 2156,
      "\".": 2157,
      "Ġitself": 2158,
      "where": 2159,
      "Ġprofess": 2160,
      "ourn": 2161,
      "How": 2162,
      "//": 2163,
      "Ġscient": 2164,
      "Ġobserv": 2165,
      "arc": 2166,
      "ery": 2167,
      "Ġwhole": 2168,
      "Ġwar": 2169,
      "Ġrange": 2170,
      "Ġcity": 2171,
      "Ġposition": 2172,
      "ibility": 2173,
      "af": 2174,
      "Ġdeg": 2175,
      "qrt": 2176,
      "There": 2177,
      "AT": 2178,
      "Ġpoly": 2179,
      "mber": 2180,
      "Â²": 2181,
      "Ġfuture": 2182,
      "Ġsolution": 2183,
      "Ġpattern": 2184,
      "ump": 2185,
      "Ġintrodu": 2186,
      "Ġcustom": 2187,
      "Ġthing": 2188,
      "ĠApp": 2189,
      "Ġrate": 2190,
      "You": 2191,
      "ply": 2192,
      "verse": 2193,
      "icult": 2194,
      "Ġcame": 2195,
      "Ġhigher": 2196,
      "ĠÂ": 2197,
      "Ġunique": 2198,
      "Ġdeal": 2199,
      "respond": 2200,
      "yl": 2201,
      "Ġfive": 2202,
      "Ġcannot": 2203,
      "Ġdone": 2204,
      "oph": 2205,
      "Ġmom": 2206,
      "Ġproducts": 2207,
      "Ġconcern": 2208,
      "Ġelements": 2209,
      "Ġmillion": 2210,
      "Ġmind": 2211,
      "iation": 2212,
      "ones": 2213,
      "Ġservice": 2214,
      "ecially": 2215,
      "Ġneeds": 2216,
      "Ġsepar": 2217,
      "Ġaccording": 2218,
      "Ġjob": 2219,
      "inary": 2220,
      "angle": 2221,
      "apt": 2222,
      "Ġrisk": 2223,
      "Ġhy": 2224,
      "Ġey": 2225,
      "13": 2226,
      "ĠCal": 2227,
      "Ġknowledge": 2228,
      "Ġdig": 2229,
      "Ġlooking": 2230,
      "ison": 2231,
      "ooks": 2232,
      "Ġquick": 2233,
      "Ġdem": 2234,
      "Ġgraph": 2235,
      "Ġsquare": 2236,
      "Ġtaking": 2237,
      "Ġapproach": 2238,
      "ĠMed": 2239,
      "Ġobtain": 2240,
      "Ġ13": 2241,
      "ĠAf": 2242,
      "Ġdoing": 2243,
      "Ġhappen": 2244,
      "Ġprevious": 2245,
      "ends": 2246,
      "Ġge": 2247,
      "Ġonline": 2248,
      "Ġwon": 2249,
      "When": 2250,
      "acy": 2251,
      "oman": 2252,
      "ĠRep": 2253,
      "ene": 2254,
      "fer": 2255,
      "illed": 2256,
      "Ġfall": 2257,
      "Ġshare": 2258,
      "Ġmoney": 2259,
      "Ġsomet": 2260,
      "Ġbehav": 2261,
      "sh": 2262,
      "Ġstory": 2263,
      "Ġcorrespond": 2264,
      "Ġpred": 2265,
      "Ġsitu": 2266,
      "Ġquestions": 2267,
      "Ġbit": 2268,
      "Ġoffic": 2269,
      "Ġsite": 2270,
      "Ġheart": 2271,
      "iding": 2272,
      "ression": 2273,
      "25": 2274,
      "ĠNational": 2275,
      "especially": 2276,
      "Ġ100": 2277,
      "Ġlanguage": 2278,
      "ĠEurope": 2279,
      "17": 2280,
      "Ġred": 2281,
      "Ġarg": 2282,
      "Ġindic": 2283,
      "isc": 2284,
      "Ġhouse": 2285,
      "Ġproperties": 2286,
      "Ġstra": 2287,
      "pos": 2288,
      "Ġcases": 2289,
      "Ġtook": 2290,
      "duct": 2291,
      "uck": 2292,
      "://": 2293,
      "port": 2294,
      "Ġaddress": 2295,
      "inking": 2296,
      "lam": 2297,
      "Ġage": 2298,
      "Ġactiv": 2299,
      "ĠAm": 2300,
      "Ġpath": 2301,
      "But": 2302,
      "ilt": 2303,
      "lier": 2304,
      "'ll": 2305,
      "Ġtypes": 2306,
      "ches": 2307,
      "chie": 2308,
      "Ġ198": 2309,
      "Ġrele": 2310,
      "Ġsometimes": 2311,
      "Ã©": 2312,
      "Ġrequired": 2313,
      "Ġlower": 2314,
      "Ġlikely": 2315,
      "fully": 2316,
      "usion": 2317,
      "ification": 2318,
      "Ġseen": 2319,
      "ruction": 2320,
      "att": 2321,
      "Ġtemper": 2322,
      "Ġdr": 2323,
      "Ġclaim": 2324,
      "Ġeasy": 2325,
      "Ġanalysis": 2326,
      "ai": 2327,
      "ze": 2328,
      "resents": 2329,
      "Ġbecame": 2330,
      "cle": 2331,
      "ĠIntern": 2332,
      "Ġmulti": 2333,
      "Ġfrequ": 2334,
      "Ġdifficult": 2335,
      "Ġinside": 2336,
      "Ġdisease": 2337,
      "Ġessential": 2338,
      "ĠSu": 2339,
      "Ġrespons": 2340,
      "Ġbound": 2341,
      "uly": 2342,
      "ĠCar": 2343,
      "Ġfinal": 2344,
      "obal": 2345,
      "ok": 2346,
      "Ġcollect": 2347,
      "Ġbuilding": 2348,
      "eb": 2349,
      "Ġtalk": 2350,
      "empt": 2351,
      "Ġparent": 2352,
      "Ġstandard": 2353,
      "Ġbecomes": 2354,
      "oose": 2355,
      "Ġprinc": 2356,
      "Ġanswer": 2357,
      "Ġsuper": 2358,
      "Ġ,": 2359,
      "âĤ": 2360,
      "Ġconver": 2361,
      "ask": 2362,
      "IN": 2363,
      "ĠWar": 2364,
      "Ġrepresents": 2365,
      "Ġcut": 2366,
      "sy": 2367,
      "Ġwa": 2368,
      "lim": 2369,
      "gest": 2370,
      "Ġproperty": 2371,
      "oday": 2372,
      "Ġparts": 2373,
      "Ġsym": 2374,
      "Ġespecially": 2375,
      "ming": 2376,
      "Ġlive": 2377,
      "ĠMan": 2378,
      "Ġcontrib": 2379,
      "ĠAfter": 2380,
      ")^": 2381,
      "Ġpair": 2382,
      "ands": 2383,
      "Ġprim": 2384,
      "ES": 2385,
      "Ġsurface": 2386,
      "ĠGe": 2387,
      "icro": 2388,
      "Ġsimply": 2389,
      "Ġexc": 2390,
      "org": 2391,
      "Ġstates": 2392,
      "Ġmatter": 2393,
      "ublic": 2394,
      "li": 2395,
      "Ġdeath": 2396,
      "Ġblood": 2397,
      "dd": 2398,
      "ĠComm": 2399,
      "Ġimpact": 2400,
      "ls": 2401,
      "Ġ#": 2402,
      "Ġmusic": 2403,
      "roll": 2404,
      "Ġbase": 2405,
      "ured": 2406,
      "Ġgetting": 2407,
      "Ġla": 2408,
      "imens": 2409,
      "Ġmatrix": 2410,
      "Ġmeaning": 2411,
      "Ġrole": 2412,
      "ibr": 2413,
      "Ġhours": 2414,
      "Ġtechnology": 2415,
      "ĠAss": 2416,
      "Ġsoft": 2417,
      "Ġcause": 2418,
      "ips": 2419,
      "place": 2420,
      "ched": 2421,
      "ĠSy": 2422,
      "Ġwind": 2423,
      "Ġpaper": 2424,
      "Ġcheck": 2425,
      "ift": 2426,
      "Ġformula": 2427,
      "ithm": 2428,
      ")\\": 2429,
      "ĠQu": 2430,
      "ript": 2431,
      "Ġprovides": 2432,
      "Ġ>": 2433,
      "Ġcondition": 2434,
      "Ġforce": 2435,
      "ĠSince": 2436,
      "ON": 2437,
      "ster": 2438,
      "Ġoccur": 2439,
      "Ġservices": 2440,
      "Ġcompon": 2441,
      "Ġexpression": 2442,
      "Ġtreatment": 2443,
      "ĠAust": 2444,
      "Ġthroughout": 2445,
      "Ġfav": 2446,
      "ung": 2447,
      "Ġincrease": 2448,
      "nces": 2449,
      "ĠBrit": 2450,
      "Ġtaken": 2451,
      "rad": 2452,
      "Ġneeded": 2453,
      "Ġconstant": 2454,
      "Ġvide": 2455,
      "Ġquant": 2456,
      "Ġstarted": 2457,
      "Ġground": 2458,
      "Ġinitial": 2459,
      "ĠEar": 2460,
      "Ġperfect": 2461,
      "60": 2462,
      "Ġ25": 2463,
      "ctors": 2464,
      "new": 2465,
      "ĠYork": 2466,
      "amed": 2467,
      "Ġrecogn": 2468,
      "Ġdoc": 2469,
      "isf": 2470,
      "22": 2471,
      "Ġport": 2472,
      "ifically": 2473,
      "Ġtheory": 2474,
      "erve": 2475,
      "ober": 2476,
      "Ġcomputer": 2477,
      "Ġengine": 2478,
      "urch": 2479,
      "Ġsix": 2480,
      "Ġgives": 2481,
      "Ġsent": 2482,
      "Ġself": 2483,
      "Ġri": 2484,
      "Ġvector": 2485,
      "Ġaverage": 2486,
      "Ġones": 2487,
      "sqrt": 2488,
      "Ġopportun": 2489,
      "Ġconsist": 2490,
      "anced": 2491,
      "Ġlevels": 2492,
      "bit": 2493,
      "Ġlinear": 2494,
      "Ġmultiple": 2495,
      "ying": 2496,
      "Ġreview": 2497,
      "Ġremember": 2498,
      "Ġword": 2499,
      "\",": 2500,
      "ceed": 2501,
      "AR": 2502,
      "ĠSome": 2503,
      "Ġfinding": 2504,
      "Ġpopulation": 2505,
      "pro": 2506,
      "joy": 2507,
      "Ġcy": 2508,
      "like": 2509,
      "Ġtowards": 2510,
      "lor": 2511,
      ".)": 2512,
      "ĠHere": 2513,
      "hing": 2514,
      "ĠEnglish": 2515,
      "Ġquality": 2516,
      "Ġusually": 2517,
      "Ġconcl": 2518,
      "Ġdraw": 2519,
      "ging": 2520,
      "Ġfamil": 2521,
      "inally": 2522,
      "wise": 2523,
      "Ġ197": 2524,
      "Ġprec": 2525,
      "Ġbreak": 2526,
      "otes": 2527,
      "Ġseason": 2528,
      "Ġdistance": 2529,
      "Ġmor": 2530,
      "ĠPr": 2531,
      "ĠCont": 2532,
      "atives": 2533,
      "Ġdifference": 2534,
      "Ġmathematical": 2535,
      "Al": 2536,
      "cos": 2537,
      "agn": 2538,
      "Ġeffic": 2539,
      "Ġselect": 2540,
      "Ġachie": 2541,
      "Ġcou": 2542,
      "Let": 2543,
      "Ġlay": 2544,
      "idered": 2545,
      "ocks": 2546,
      "Ġsubject": 2547,
      "Ġsmaller": 2548,
      "``": 2549,
      "Ġhelps": 2550,
      "Ġcentury": 2551,
      "Ch": 2552,
      "Ġassociated": 2553,
      "And": 2554,
      "Ġanaly": 2555,
      "ows": 2556,
      "ĠGen": 2557,
      "Ġcode": 2558,
      "ociety": 2559,
      "hern": 2560,
      "###": 2561,
      "Ġelement": 2562,
      "Ġstructure": 2563,
      "Ġnight": 2564,
      "Ġut": 2565,
      "acks": 2566,
      "Ġdidn": 2567,
      "ĠWest": 2568,
      "ops": 2569,
      "Ġnature": 2570,
      "aches": 2571,
      "ĠNorth": 2572,
      "Ġpolic": 2573,
      "rew": 2574,
      "Ġspecies": 2575,
      "Ġtravel": 2576,
      "Ġgrowth": 2577,
      "ĠState": 2578,
      "pper": 2579,
      "ĠGerm": 2580,
      "ĠWorld": 2581,
      "Ġdou": 2582,
      "ius": 2583,
      "'ve": 2584,
      "hib": 2585,
      "magine": 2586,
      "AS": 2587,
      "Ġalmost": 2588,
      "Ġdemon": 2589,
      "ams": 2590,
      "Ġpersonal": 2591,
      "mbol": 2592,
      "Ġearlier": 2593,
      "aching": 2594,
      "Ġissues": 2595,
      "Ġnormal": 2596,
      "ems": 2597,
      "Ġsomeone": 2598,
      "Ġcorrect": 2599,
      "Ġisn": 2600,
      "action": 2601,
      "Ġnegative": 2602,
      "Ġimprove": 2603,
      "Ġwent": 2604,
      "Ġconsidered": 2605,
      "Ġbehind": 2606,
      "Ġshows": 2607,
      "Ġdirectly": 2608,
      "urity": 2609,
      "Ġmonths": 2610,
      "Ġwebs": 2611,
      "Ġbegan": 2612,
      "Ġcreated": 2613,
      "Ġinflu": 2614,
      "Ġeducation": 2615,
      "Ġloss": 2616,
      "Ġeverything": 2617,
      "Ġspeed": 2618,
      "Ġtakes": 2619,
      "rown": 2620,
      "ises": 2621,
      "Ġblack": 2622,
      "40": 2623,
      "reg": 2624,
      "oll": 2625,
      "rug": 2626,
      "Ġ50": 2627,
      "ĠMe": 2628,
      "Ġindepend": 2629,
      "aced": 2630,
      "che": 2631,
      "Ġcolor": 2632,
      "aff": 2633,
      "ĠMy": 2634,
      "eed": 2635,
      "ites": 2636,
      "Ġapproxim": 2637,
      "Ġpriv": 2638,
      "aving": 2639,
      "AN": 2640,
      "aging": 2641,
      "Ġerr": 2642,
      ");": 2643,
      "ĠUs": 2644,
      "ĠÃ": 2645,
      "Ġthemselves": 2646,
      "ĠMo": 2647,
      "Ġlines": 2648,
      "},": 2649,
      "ĠSouth": 2650,
      "itude": 2651,
      "Ġequations": 2652,
      "Ġdetermine": 2653,
      "Ġbeaut": 2654,
      "Ġmess": 2655,
      "ĠOur": 2656,
      "Ġpractice": 2657,
      "Ġsatisf": 2658,
      "cd": 2659,
      "Ġ2012": 2660,
      "ĠAfric": 2661,
      "ried": 2662,
      "Ġplant": 2663,
      "alu": 2664,
      "Ġtax": 2665,
      "Ġcells": 2666,
      "Ġtradition": 2667,
      "ĠHis": 2668,
      "Ġrules": 2669,
      "ĠAb": 2670,
      "Ġthird": 2671,
      "ĠMore": 2672,
      "Ġcoll": 2673,
      "onal": 2674,
      "atter": 2675,
      "Ġsequence": 2676,
      "ained": 2677,
      "iate": 2678,
      "son": 2679,
      "Ġsets": 2680,
      "Ġregular": 2681,
      "raft": 2682,
      "ĠDo": 2683,
      "aged": 2684,
      "Ġallows": 2685,
      "Ġyield": 2686,
      "reme": 2687,
      "ĠEn": 2688,
      "Ġlimit": 2689,
      "umb": 2690,
      "Ġnecessary": 2691,
      "ensive": 2692,
      "Ġoffer": 2693,
      "Ġexactly": 2694,
      "ication": 2695,
      "Ġscience": 2696,
      "Ġwide": 2697,
      "Ġbring": 2698,
      "iber": 2699,
      "Ġ--": 2700,
      "iol": 2701,
      "pped": 2702,
      "Ġparticip": 2703,
      "uff": 2704,
      "Ġrelative": 2705,
      "Ġbir": 2706,
      "Ġnumer": 2707,
      "Ġfail": 2708,
      "Ġrule": 2709,
      "Ġevents": 2710,
      "Ġrelated": 2711,
      "ournal": 2712,
      "Ġchalleng": 2713,
      "go": 2714,
      "ĠGu": 2715,
      "Ġvisit": 2716,
      "Ġsense": 2717,
      "Ġenjoy": 2718,
      "pping": 2719,
      "Ġcand": 2720,
      "Ġpage": 2721,
      "ĠWhile": 2722,
      "inct": 2723,
      "rm": 2724,
      "Ġwritten": 2725,
      "Ġideas": 2726,
      "Ġweight": 2727,
      "Ġmethods": 2728,
      "Ġ($": 2729,
      "Ġjo": 2730,
      "itle": 2731,
      "Ġcool": 2732,
      "'m": 2733,
      "Ġtable": 2734,
      "oted": 2735,
      "Ġtrying": 2736,
      "He": 2737,
      "ĠKe": 2738,
      "Ġsens": 2739,
      "Ġmaterial": 2740,
      "ĠDep": 2741,
      "Ġmaintain": 2742,
      "ners": 2743,
      "ister": 2744,
      "come": 2745,
      "Ġpict": 2746,
      "esc": 2747,
      "Ġdeep": 2748,
      "hood": 2749,
      "ĠAg": 2750,
      "Ġquite": 2751,
      "ĠSim": 2752,
      "Ġgoal": 2753,
      "Ġexperi": 2754,
      "Ġsimpl": 2755,
      "Ġfactors": 2756,
      "chan": 2757,
      "Ġmention": 2758,
      "21": 2759,
      "unch": 2760,
      "Ġmath": 2761,
      "opy": 2762,
      "iques": 2763,
      "Ġaction": 2764,
      "cular": 2765,
      "osing": 2766,
      "gor": 2767,
      "Ġliving": 2768,
      "Ġdam": 2769,
      "OR": 2770,
      "Ġadded": 2771,
      "Ġdistribution": 2772,
      "Ġaccept": 2773,
      "Ġfit": 2774,
      "ĠThen": 2775,
      "Ġcontact": 2776,
      "bo": 2777,
      "aries": 2778,
      "Ġwhite": 2779,
      "arget": 2780,
      "Ġcamp": 2781,
      "Ġsearch": 2782,
      "Ġmagn": 2783,
      "Ġroom": 2784,
      "ordin": 2785,
      "Ġfigure": 2786,
      "artment": 2787,
      "met": 2788,
      "Ġsal": 2789,
      "Ġgreater": 2790,
      "ĠJan": 2791,
      "yond": 2792,
      "iddle": 2793,
      "Ġanim": 2794,
      "Ġface": 2795,
      "Ġur": 2796,
      "Ġetc": 2797,
      "ĠChe": 2798,
      "Ġeffects": 2799,
      "lege": 2800,
      "ĠNot": 2801,
      "istance": 2802,
      "Ġcountries": 2803,
      "Ġoutside": 2804,
      "nom": 2805,
      "equ": 2806,
      "atory": 2807,
      "Ġmach": 2808,
      "Ġpack": 2809,
      "Ġsun": 2810,
      "Ġhtt": 2811,
      "Ġarticle": 2812,
      "arily": 2813,
      "Ġ24": 2814,
      "vent": 2815,
      "Ġvia": 2816,
      "ached": 2817,
      "ino": 2818,
      "iction": 2819,
      "gebra": 2820,
      "Ġassum": 2821,
      "Ġeveryone": 2822,
      "Ġcompet": 2823,
      "Ġproduction": 2824,
      "Ġmaxim": 2825,
      ")=": 2826,
      "Ġbar": 2827,
      "ony": 2828,
      "}^": 2829,
      "ĠAmerica": 2830,
      "Ġadditional": 2831,
      "Ġremains": 2832,
      "Ġexplore": 2833,
      "iet": 2834,
      "itor": 2835,
      "Ġchem": 2836,
      "ille": 2837,
      "ĠMat": 2838,
      "Ġregion": 2839,
      "ĠToday": 2840,
      "ndom": 2841,
      "Ġce": 2842,
      "Ġvir": 2843,
      "Ġinvolving": 2844,
      "ĠSec": 2845,
      "Ġste": 2846,
      "Ġanything": 2847,
      "itary": 2848,
      "Ġdemonstr": 2849,
      "Ġforms": 2850,
      "Ġissue": 2851,
      "Ġsolutions": 2852,
      "\\_{": 2853,
      "Ġago": 2854,
      "ustr": 2855,
      "Ġmodern": 2856,
      "Ġseems": 2857,
      "Ġleading": 2858,
      "umn": 2859,
      "uted": 2860,
      "Ġapply": 2861,
      "arr": 2862,
      "Ġteac": 2863,
      "ixed": 2864,
      "Ġpopular": 2865,
      "Ġaffect": 2866,
      "24": 2867,
      "Ġheav": 2868,
      "Ġevalu": 2869,
      "iven": 2870,
      "earch": 2871,
      "Ġestim": 2872,
      "ĠMin": 2873,
      "Ġensure": 2874,
      "Ġdest": 2875,
      "Ġinteresting": 2876,
      "ĠAct": 2877,
      "Ġimagine": 2878,
      "Ġinput": 2879,
      "Ġasked": 2880,
      "Ġpolitical": 2881,
      "ĠPart": 2882,
      "Ġprobability": 2883,
      "Ġrecomm": 2884,
      "Ġminim": 2885,
      "Ġcontent": 2886,
      "Ġbasic": 2887,
      "Ġphysical": 2888,
      "Ġconsum": 2889,
      "Ġhor": 2890,
      "Ġmoment": 2891,
      "Ġbelieve": 2892,
      "enc": 2893,
      "mathbb": 2894,
      "fficient": 2895,
      "Ġoil": 2896,
      "Ġsteps": 2897,
      "Ġaltern": 2898,
      "Ex": 2899,
      "Ġfollows": 2900,
      "Ġappl": 2901,
      "ae": 2902,
      "ĠDr": 2903,
      "Ġthus": 2904,
      "Ġlarger": 2905,
      "sin": 2906,
      "astic": 2907,
      "ĠPres": 2908,
      "Ġattempt": 2909,
      "istics": 2910,
      "ball": 2911,
      "Ġwriting": 2912,
      "Ġdefined": 2913,
      "ivil": 2914,
      "Ġderiv": 2915,
      "On": 2916,
      "Ġgreen": 2917,
      "Ġstudies": 2918,
      "ĠStud": 2919,
      "Ġhistor": 2920,
      "itch": 2921,
      "Ġsource": 2922,
      "Ġflu": 2923,
      "Ġcompan": 2924,
      "Ġlonger": 2925,
      "onse": 2926,
      "Ġstay": 2927,
      "Ġevidence": 2928,
      "Ġnational": 2929,
      "iment": 2930,
      "Ġadj": 2931,
      "ĠPer": 2932,
      "resh": 2933,
      "Ġcover": 2934,
      "Ġexpect": 2935,
      "Ġprobably": 2936,
      "Ġvariables": 2937,
      "Ġtold": 2938,
      "ama": 2939,
      "Ġdeveloped": 2940,
      "23": 2941,
      "Ġindustry": 2942,
      "ĠJust": 2943,
      "ĠThus": 2944,
      "Ġrandom": 2945,
      "Ġfeatures": 2946,
      "Ġpressure": 2947,
      "Ġprotect": 2948,
      "Ġrights": 2949,
      "Ġcru": 2950,
      "light": 2951,
      "Ġwrite": 2952,
      "Ġarr": 2953,
      "ĠWill": 2954,
      "Ġinvolved": 2955,
      "Ġincludes": 2956,
      "ĠPar": 2957,
      "Ġmiss": 2958,
      "Ġaccur": 2959,
      "IS": 2960,
      "ĠCanad": 2961,
      "Ġtraining": 2962,
      "tic": 2963,
      "ĠSpec": 2964,
      "Ġlink": 2965,
      "Ġtechniques": 2966,
      "inks": 2967,
      "arrow": 2968,
      "Ġemer": 2969,
      "Ġskills": 2970,
      "}(": 2971,
      "Ġpublished": 2972,
      "attle": 2973,
      "Ġdeb": 2974,
      "pri": 2975,
      "ĠAug": 2976,
      "ĠCount": 2977,
      "Ġprevent": 2978,
      "ued": 2979,
      "Ġresources": 2980,
      "anks": 2981,
      "ĠGo": 2982,
      "Ġincreasing": 2983,
      "Ġsoon": 2984,
      "Ġvideo": 2985,
      "mic": 2986,
      "Ġfile": 2987,
      "Ġsex": 2988,
      "Ġrecent": 2989,
      "ifying": 2990,
      "abor": 2991,
      "orem": 2992,
      "Ġmedia": 2993,
      "Ġslow": 2994,
      "rec": 2995,
      "ole": 2996,
      "}^{": 2997,
      "oor": 2998,
      "Ġimage": 2999,
      "ares": 3000,
      "Ġresearc": 3001,
      "ĠSchool": 3002,
      "ĠTw": 3003,
      "ĠComp": 3004,
      "One": 3005,
      "egin": 3006,
      "ores": 3007,
      "bon": 3008,
      "Ġbal": 3009,
      "Ġcompared": 3010,
      "Ġ2010": 3011,
      "ously": 3012,
      "Ġhot": 3013,
      "ĠYour": 3014,
      "Ġbeyond": 3015,
      "Ġfront": 3016,
      "Ġemb": 3017,
      "Ġglobal": 3018,
      "Ġdivid": 3019,
      "Ġimm": 3020,
      "cell": 3021,
      "Ġtal": 3022,
      "uments": 3023,
      "Ġfa": 3024,
      "rought": 3025,
      "Ġbehavior": 3026,
      "olic": 3027,
      "Ġnews": 3028,
      "ĠII": 3029,
      "apan": 3030,
      "Ġwhose": 3031,
      "ĠPe": 3032,
      "Ġsides": 3033,
      "Ġactivities": 3034,
      "ĠRec": 3035,
      "Ġwebsite": 3036,
      "rel": 3037,
      "Ġ$(": 3038,
      "Here": 3039,
      "Ġcommit": 3040,
      "Ġmedical": 3041,
      "iful": 3042,
      "Ġability": 3043,
      "Ġcenter": 3044,
      "Ġ2013": 3045,
      "ĠEarth": 3046,
      "Ġperformance": 3047,
      "minist": 3048,
      "ĠGra": 3049,
      "Ġbuilt": 3050,
      "Ġcontinue": 3051,
      "oura": 3052,
      "bl": 3053,
      "Ġimplement": 3054,
      "pha": 3055,
      "iece": 3056,
      "Ġled": 3057,
      "Ġstudent": 3058,
      "Ġstri": 3059,
      "roup": 3060,
      "Ġsymbol": 3061,
      "pi": 3062,
      "head": 3063,
      "overed": 3064,
      "Ġconv": 3065,
      "Ġminutes": 3066,
      "Ġcross": 3067,
      "uth": 3068,
      "Ġlate": 3069,
      "Ġdesigned": 3070,
      "Ġtarget": 3071,
      "}{\\": 3072,
      "Ġtransform": 3073,
      "Ġmanagement": 3074,
      "Ġfavor": 3075,
      "Ġshown": 3076,
      "ccording": 3077,
      "ese": 3078,
      "Ġquickly": 3079,
      "ĠTherefore": 3080,
      "Ġhope": 3081,
      "Ġactivity": 3082,
      "based": 3083,
      "Ġunit": 3084,
      "uf": 3085,
      "ĠTra": 3086,
      "ĠOct": 3087,
      "Ġangle": 3088,
      "Ġconcepts": 3089,
      "raction": 3090,
      "Ġpatients": 3091,
      "Ġparticularly": 3092,
      "Ġreading": 3093,
      "At": 3094,
      "aily": 3095,
      "Ġdirection": 3096,
      "Ġaud": 3097,
      "Ġcard": 3098,
      "ĊĊ": 3099,
      "uary": 3100,
      "Ġpolynom": 3101,
      "ief": 3102,
      "Ġchoose": 3103,
      "rench": 3104,
      "Ġinvestig": 3105,
      "Ġbooks": 3106,
      "Ġtemperature": 3107,
      "atur": 3108,
      "Ġful": 3109,
      "uel": 3110,
      "Ġversion": 3111,
      "Ġreve": 3112,
      "80": 3113,
      "Ġarri": 3114,
      "amental": 3115,
      "Ġheld": 3116,
      "ulations": 3117,
      "Ġapplication": 3118,
      "ĠInst": 3119,
      "ĠAustral": 3120,
      "Ġ2011": 3121,
      "Ġgames": 3122,
      "Ġinfin": 3123,
      "Ġrequires": 3124,
      "Ġcancer": 3125,
      "Ġdrug": 3126,
      "aur": 3127,
      "stitute": 3128,
      "ĠDav": 3129,
      "EN": 3130,
      "Ġintegr": 3131,
      "}$$": 3132,
      "sec": 3133,
      "Ġextra": 3134,
      "Ġclos": 3135,
      "time": 3136,
      "Ġfoot": 3137,
      "Ġtown": 3138,
      "elt": 3139,
      "ding": 3140,
      "ederal": 3141,
      "Ġshape": 3142,
      "Ġarch": 3143,
      "order": 3144,
      "era": 3145,
      "Ġdistinct": 3146,
      "AL": 3147,
      "icians": 3148,
      "iff": 3149,
      "Ġnote": 3150,
      "ĠAng": 3151,
      "Ġparam": 3152,
      "ening": 3153,
      "Ġtools": 3154,
      "Ġhost": 3155,
      "Ġregarding": 3156,
      "ened": 3157,
      "Ġclean": 3158,
      "Ġalgor": 3159,
      "Ġfire": 3160,
      "Ġmechan": 3161,
      "ĠCor": 3162,
      "book": 3163,
      "Ġfast": 3164,
      "ĠMc": 3165,
      "ĠApr": 3166,
      "Ġrat": 3167,
      "Ġgoes": 3168,
      "Ġconduct": 3169,
      "tical": 3170,
      "Ġdecl": 3171,
      "zz": 3172,
      "Ġeasily": 3173,
      "load": 3174,
      "Ġsmo": 3175,
      "Ġfilm": 3176,
      "Ġep": 3177,
      "dom": 3178,
      "Ġwond": 3179,
      "ĠCons": 3180,
      "ID": 3181,
      "Ġexcept": 3182,
      "cial": 3183,
      "Ġcontains": 3184,
      "Ġrelig": 3185,
      "Ġnamed": 3186,
      "Ġsuff": 3187,
      "Ġprice": 3188,
      "Ġoperations": 3189,
      "Ġsn": 3190,
      "Ġpick": 3191,
      "ĠEd": 3192,
      "idge": 3193,
      "Ġcontext": 3194,
      "Ġbad": 3195,
      "nown": 3196,
      "Ġreflect": 3197,
      "enge": 3198,
      "ĠNe": 3199,
      "Ġexists": 3200,
      "Ġappropri": 3201,
      "iar": 3202,
      "igen": 3203,
      "Ġpredict": 3204,
      "olute": 3205,
      "Ġmathematics": 3206,
      "ground": 3207,
      "Ġbrain": 3208,
      "Ġeconomic": 3209,
      "cdot": 3210,
      "Ġproduce": 3211,
      "ancy": 3212,
      "Ġ21": 3213,
      "ĠFirst": 3214,
      "Ġprint": 3215,
      "Ġkids": 3216,
      "Ġstarting": 3217,
      "Ġpret": 3218,
      "Ġviol": 3219,
      "Ġvariable": 3220,
      "rs": 3221,
      "Ġinterp": 3222,
      "Ġcapt": 3223,
      "back": 3224,
      "ED": 3225,
      "Ġfarm": 3226,
      "Ġuses": 3227,
      "Ġast": 3228,
      "Ġroad": 3229,
      "Ġstatement": 3230,
      "99": 3231,
      "Ġincreased": 3232,
      "ĠReg": 3233,
      "Ġprograms": 3234,
      "Ġinj": 3235,
      "Ġmaterials": 3236,
      "ĠJapan": 3237,
      "Ġsil": 3238,
      "cles": 3239,
      ")(": 3240,
      "view": 3241,
      "isions": 3242,
      "ĠHealth": 3243,
      "haps": 3244,
      "asc": 3245,
      "irm": 3246,
      "Ġresponse": 3247,
      "Ġdog": 3248,
      "ana": 3249,
      "ament": 3250,
      "Ġnothing": 3251,
      "Ġalgebra": 3252,
      "Ġskin": 3253,
      "izes": 3254,
      "Ġeffective": 3255,
      "bor": 3256,
      "Ġmodels": 3257,
      ",\\": 3258,
      "IC": 3259,
      "Ġ40": 3260,
      "Ġincluded": 3261,
      "27": 3262,
      "Ġstraight": 3263,
      "uge": 3264,
      "Ġoverall": 3265,
      "Ġgas": 3266,
      "Ġcompanies": 3267,
      "more": 3268,
      "Ġir": 3269,
      "Ġwall": 3270,
      "ĠSch": 3271,
      "Ġforward": 3272,
      "rig": 3273,
      "ream": 3274,
      "ĠChar": 3275,
      "ĠBritish": 3276,
      "Ġcreating": 3277,
      "Ġwanted": 3278,
      "Ġimmed": 3279,
      "sych": 3280,
      "With": 3281,
      "na": 3282,
      "Ġheat": 3283,
      "Ġpurch": 3284,
      "eal": 3285,
      "ĠCity": 3286,
      "Ġcred": 3287,
      "Ġax": 3288,
      "leep": 3289,
      "ĠDay": 3290,
      "Ġstreng": 3291,
      "AC": 3292,
      "room": 3293,
      "Ġscen": 3294,
      "ĠSm": 3295,
      "lation": 3296,
      "Ġexpected": 3297,
      "35": 3298,
      "Ġlives": 3299,
      "Ġadding": 3300,
      "Ġfish": 3301,
      "Ġnetwork": 3302,
      "Ġliter": 3303,
      "Ġpi": 3304,
      "Ġinn": 3305,
      "Ġoutput": 3306,
      "Ġreported": 3307,
      "Ġconstruct": 3308,
      "ancial": 3309,
      "year": 3310,
      "Ġinvolves": 3311,
      "Ġblock": 3312,
      "rim": 3313,
      "ĠMarch": 3314,
      "ellow": 3315,
      "Ġinstall": 3316,
      "oon": 3317,
      "Ġautom": 3318,
      "Ġfram": 3319,
      "Ġdecided": 3320,
      "ington": 3321,
      "ests": 3322,
      "Ġapplications": 3323,
      "icles": 3324,
      "odes": 3325,
      "Ġattention": 3326,
      "ĠAc": 3327,
      "Ġplants": 3328,
      "Pro": 3329,
      "ecause": 3330,
      "Ġagree": 3331,
      "Ġalthough": 3332,
      "Ġtou": 3333,
      "Ġsaw": 3334,
      "Ġcateg": 3335,
      "orks": 3336,
      "cient": 3337,
      "ĠPre": 3338,
      "ager": 3339,
      "Ġavoid": 3340,
      "oe": 3341,
      "pe": 3342,
      "vant": 3343,
      "ky": 3344,
      "Ġlost": 3345,
      "pose": 3346,
      "Ġ196": 3347,
      "Ġanimals": 3348,
      "Ġlooks": 3349,
      "enced": 3350,
      "Ġreach": 3351,
      "Ġcollection": 3352,
      "Ġdefinition": 3353,
      "âĪĴ": 3354,
      "alle": 3355,
      "Ġwatch": 3356,
      "Ġdescribed": 3357,
      "Ġreceived": 3358,
      "Ġgir": 3359,
      "ÂłÂł": 3360,
      "ounds": 3361,
      "First": 3362,
      "Ġcos": 3363,
      "ender": 3364,
      "Ġuser": 3365,
      "itation": 3366,
      "IT": 3367,
      "rast": 3368,
      "akes": 3369,
      "Ġgets": 3370,
      "Ġmatch": 3371,
      "26": 3372,
      "sum": 3373,
      "Ġrow": 3374,
      "Ġreduce": 3375,
      "Ġfundamental": 3376,
      "ĠServ": 3377,
      "ĠBar": 3378,
      "ios": 3379,
      "Ġblue": 3380,
      "Imagine": 3381,
      "Ġestablish": 3382,
      "ĠCenter": 3383,
      "Ġexerc": 3384,
      "Ġaspect": 3385,
      "Ġinstance": 3386,
      "begin": 3387,
      "Ġdecision": 3388,
      "Ġsafe": 3389,
      "Ġsituation": 3390,
      "Ġdocument": 3391,
      "da": 3392,
      "Ġroot": 3393,
      "Ġunc": 3394,
      "Ġbasis": 3395,
      "Ġweeks": 3396,
      "iam": 3397,
      "Ġsoftware": 3398,
      "ĠJune": 3399,
      "Ġmoving": 3400,
      "Ġequival": 3401,
      "aly": 3402,
      "ĠWell": 3403,
      "Ġ23": 3404,
      "Ġstop": 3405,
      "Ġspir": 3406,
      "ucle": 3407,
      "Ġestablished": 3408,
      "28": 3409,
      "Ġindividuals": 3410,
      "-\\": 3411,
      "ĠJew": 3412,
      "ades": 3413,
      "ĠAnt": 3414,
      "Ġextreme": 3415,
      "Ġupd": 3416,
      "Ġoffers": 3417,
      "ham": 3418,
      "Ġthinking": 3419,
      "ription": 3420,
      "Ġ**": 3421,
      "Ġrefer": 3422,
      "Ġ\\\\": 3423,
      "ĠKing": 3424,
      "Ġchoice": 3425,
      "Ġobjects": 3426,
      "By": 3427,
      "vey": 3428,
      "Ġchance": 3429,
      "Ġhon": 3430,
      "fort": 3431,
      "ĠEm": 3432,
      "Ġsumm": 3433,
      "iles": 3434,
      "Ġsection": 3435,
      "off": 3436,
      "Ġmovement": 3437,
      "Ġcoming": 3438,
      "ĠHist": 3439,
      "Ġresulting": 3440,
      "ension": 3441,
      "ĠSept": 3442,
      "Ġbeautiful": 3443,
      "ĠPresident": 3444,
      "Ġfeed": 3445,
      "Ġassess": 3446,
      "Ġ2009": 3447,
      "ufact": 3448,
      "Ġhyp": 3449,
      "Ġmember": 3450,
      "45": 3451,
      "Ġdegree": 3452,
      "ĠAugust": 3453,
      "ĠHar": 3454,
      "cal": 3455,
      "ĠPa": 3456,
      "ography": 3457,
      "sequently": 3458,
      "Ġadult": 3459,
      "Com": 3460,
      "used": 3461,
      "Ġresearchers": 3462,
      "Ġmid": 3463,
      "Ġformer": 3464,
      "ĠVal": 3465,
      "omin": 3466,
      "Ġparents": 3467,
      "hens": 3468,
      "Ġdetail": 3469,
      "osition": 3470,
      "Ġspread": 3471,
      "Ġprior": 3472,
      "Ġeasier": 3473,
      "Ġcoordin": 3474,
      "Ġlargest": 3475,
      "hel": 3476,
      "ĠEach": 3477,
      "ĠLa": 3478,
      "Ġbuy": 3479,
      "Ġcomponents": 3480,
      "Ġyourself": 3481,
      "Ġneigh": 3482,
      "ĠÃĹ": 3483,
      "Ġmentioned": 3484,
      "rote": 3485,
      "}_{": 3486,
      "oper": 3487,
      "Ġplaying": 3488,
      "ĠGl": 3489,
      "Ġinternational": 3490,
      "ees": 3491,
      "ĠFrench": 3492,
      "Ġclimate": 3493,
      "Ġpatterns": 3494,
      "33": 3495,
      "Ġitems": 3496,
      "Ġpiece": 3497,
      "Ġstru": 3498,
      "Ġserious": 3499,
      "ĠApril": 3500,
      "elling": 3501,
      "Ġcir": 3502,
      "ĠMus": 3503,
      "Ġearth": 3504,
      "ĠÏ": 3505,
      "su": 3506,
      "Ġfair": 3507,
      "Ġrunning": 3508,
      "Ġsolving": 3509,
      "Cl": 3510,
      "oes": 3511,
      "Ġsolve": 3512,
      "--------": 3513,
      "gram": 3514,
      "Ġprep": 3515,
      "Ġvariety": 3516,
      "29": 3517,
      "ĠRed": 3518,
      "Ġdetails": 3519,
      "vere": 3520,
      "ĠMon": 3521,
      "ran": 3522,
      "ĠInternational": 3523,
      "Ġrout": 3524,
      "Ġmother": 3525,
      "ensity": 3526,
      "Ġund": 3527,
      "Ġcircle": 3528,
      "Ġjud": 3529,
      "Ġweb": 3530,
      "Ġsurv": 3531,
      "Ġhimself": 3532,
      "Ġworth": 3533,
      "Ġdisplay": 3534,
      "Ġfollowed": 3535,
      "Ġgenerally": 3536,
      "Ġsurpr": 3537,
      "Ġsold": 3538,
      "Ġleaders": 3539,
      "Ġsus": 3540,
      "cil": 3541,
      "Ġabsolute": 3542,
      "Ġcat": 3543,
      "Ġinteract": 3544,
      "Ġculture": 3545,
      "Ġaim": 3546,
      "Ġcam": 3547,
      "ĠJuly": 3548,
      "lands": 3549,
      "Ġelectric": 3550,
      "rees": 3551,
      "Ġrepe": 3552,
      "Ġnotice": 3553,
      "ban": 3554,
      "oly": 3555,
      "ĠDon": 3556,
      "Ġcentral": 3557,
      "point": 3558,
      "ype": 3559,
      "Ġult": 3560,
      "Ġheight": 3561,
      "Ġusers": 3562,
      "Ġpolicy": 3563,
      "Ġplease": 3564,
      "iples": 3565,
      "iforn": 3566,
      "Ġshap": 3567,
      "Ġbroad": 3568,
      "NA": 3569,
      "iday": 3570,
      "ĠFeb": 3571,
      "Ġhyd": 3572,
      "ĠBra": 3573,
      "Ġoptions": 3574,
      "Ġguide": 3575,
      "amin": 3576,
      "ĠDepartment": 3577,
      ")/": 3578,
      "ĠUnder": 3579,
      "asons": 3580,
      "ĠSol": 3581,
      "Ġcomplic": 3582,
      "fty": 3583,
      "Ġter": 3584,
      "Ġmount": 3585,
      "Ġproduced": 3586,
      "Ġpow": 3587,
      "Ġcorresponding": 3588,
      "Ġprogress": 3589,
      "Ġsubst": 3590,
      "Ġprivate": 3591,
      "Ġactual": 3592,
      "theta": 3593,
      "Ġwarm": 3594,
      "eces": 3595,
      "ptoms": 3596,
      "unction": 3597,
      "Ġdepend": 3598,
      "Ġvict": 3599,
      "Ġwild": 3600,
      "Ġleave": 3601,
      "ĠRuss": 3602,
      "ĠĠĠĠĠĠĠĠ": 3603,
      "iny": 3604,
      "ĠAlex": 3605,
      "Ġsafety": 3606,
      "ha": 3607,
      "Ġencoura": 3608,
      "Ġfeature": 3609,
      "standing": 3610,
      "Ġemail": 3611,
      "Ġachieve": 3612,
      "RE": 3613,
      "ica": 3614,
      "Ġmicro": 3615,
      "Ġconvers": 3616,
      "Ġcolumn": 3617,
      "Ġbeginning": 3618,
      "itable": 3619,
      "www": 3620,
      "illing": 3621,
      "Ġgeomet": 3622,
      "Ġuseful": 3623,
      "}$.": 3624,
      "which": 3625,
      "Ġwalk": 3626,
      "Ġbag": 3627,
      "Ġblocks": 3628,
      "Ġhands": 3629,
      "dered": 3630,
      "erson": 3631,
      "Ġtraditional": 3632,
      "Ġbott": 3633,
      "Ġtoys": 3634,
      "igned": 3635,
      "Ġrecently": 3636,
      "ode": 3637,
      "Ġfru": 3638,
      "Ġbrought": 3639,
      "Ġequals": 3640,
      "Ġgrowing": 3641,
      "Ġstress": 3642,
      "Ġtrade": 3643,
      "yth": 3644,
      "BC": 3645,
      "Ġdate": 3646,
      "Ġoffice": 3647,
      "Ġcourt": 3648,
      "Ġ60": 3649,
      "Ġmedic": 3650,
      "Ġpretty": 3651,
      "ifornia": 3652,
      "anger": 3653,
      "Ġdecre": 3654,
      "mathbf": 3655,
      "Ġindeed": 3656,
      "Ġlimited": 3657,
      "Ph": 3658,
      "Ġlocation": 3659,
      "Ġdaily": 3660,
      "Ġstrateg": 3661,
      "Ġhttp": 3662,
      "aught": 3663,
      "ĠHer": 3664,
      "Ġfat": 3665,
      "ronic": 3666,
      "Ġwrote": 3667,
      "ĠJanuary": 3668,
      "Ġhit": 3669,
      "ibrary": 3670,
      "Ġ2008": 3671,
      "Ġforces": 3672,
      "Ġsecurity": 3673,
      "Ġharm": 3674,
      "Ġfight": 3675,
      "Ġlif": 3676,
      "Ġgiving": 3677,
      "erg": 3678,
      "Ġeyes": 3679,
      "duc": 3680,
      "see": 3681,
      "Ġappropriate": 3682,
      "ĠSw": 3683,
      "Ġhappens": 3684,
      "uk": 3685,
      "Ġtree": 3686,
      "ilos": 3687,
      "Ġsummer": 3688,
      "ello": 3689,
      "Ġscreen": 3690,
      "Ġnut": 3691,
      "ĠChina": 3692,
      "Ġsin": 3693,
      "ĠFrom": 3694,
      "Ġproced": 3695,
      "gar": 3696,
      "ĠRem": 3697,
      "Ġmaximum": 3698,
      "ĠArt": 3699,
      "eta": 3700,
      "Ġshall": 3701,
      "Ġpresented": 3702,
      "hest": 3703,
      "overn": 3704,
      "Ġrot": 3705,
      "Ġlocated": 3706,
      "Ġindependent": 3707,
      "Ġbenefits": 3708,
      "cember": 3709,
      "Ġcaused": 3710,
      "Ġcontinued": 3711,
      "Ġthreat": 3712,
      "ĠPat": 3713,
      "Ġtherefore": 3714,
      "US": 3715,
      "Ġcosts": 3716,
      "Ġmilitary": 3717,
      "ĠTrans": 3718,
      "ĠPol": 3719,
      "Ġlearned": 3720,
      "Ġhom": 3721,
      "Ġinteger": 3722,
      "iring": 3723,
      "ĠOther": 3724,
      "term": 3725,
      "vert": 3726,
      "abilities": 3727,
      "known": 3728,
      "Ġscientists": 3729,
      "Ġefficient": 3730,
      "Ġsong": 3731,
      "Ġswe": 3732,
      "oud": 3733,
      "ĠBo": 3734,
      "Ġproviding": 3735,
      "Ġchemical": 3736,
      "100": 3737,
      "ĠEl": 3738,
      "____": 3739,
      "ĠPark": 3740,
      "osis": 3741,
      "ils": 3742,
      "Ġworry": 3743,
      "ought": 3744,
      "infty": 3745,
      "istry": 3746,
      "ovember": 3747,
      "Ġbirth": 3748,
      "Ġworked": 3749,
      "rag": 3750,
      "Ġcompletely": 3751,
      "Ġ}": 3752,
      "Ġprimary": 3753,
      "ara": 3754,
      "ander": 3755,
      "Ġcoe": 3756,
      "Ġprote": 3757,
      "Ġprofessional": 3758,
      "(-": 3759,
      "90": 3760,
      "ĠGree": 3761,
      "Ġapplying": 3762,
      "Ġbed": 3763,
      "iency": 3764,
      "Ġdesp": 3765,
      "Ġschools": 3766,
      "Ġheard": 3767,
      "Ġincor": 3768,
      "Ġbelong": 3769,
      "bles": 3770,
      "Ġreceive": 3771,
      "Ġcele": 3772,
      "Ġlat": 3773,
      "mission": 3774,
      "ibly": 3775,
      "Ġcurrently": 3776,
      "ĠAlthough": 3777,
      "hold": 3778,
      "Ġplaces": 3779,
      "ĠHouse": 3780,
      "Ġfinancial": 3781,
      "ĠIndian": 3782,
      "Ġspeak": 3783,
      "ĠScience": 3784,
      "Ġded": 3785,
      "ervation": 3786,
      "Ġnation": 3787,
      "Ġ27": 3788,
      "Ġwood": 3789,
      "amples": 3790,
      "Ġslight": 3791,
      "Ġprincip": 3792,
      "Ġgave": 3793,
      "encies": 3794,
      "Ġord": 3795,
      "Ġexamples": 3796,
      "Ġpan": 3797,
      "Ġdimens": 3798,
      "dis": 3799,
      "ĠLaw": 3800,
      "Ġboard": 3801,
      "ĠMost": 3802,
      "Ġchallenge": 3803,
      "Ġidentity": 3804,
      "Ġillustr": 3805,
      "OS": 3806,
      "utive": 3807,
      "Ġmanufact": 3808,
      "Ġdiscovered": 3809,
      "ĠAssoci": 3810,
      "acc": 3811,
      "Ġten": 3812,
      "Ġunits": 3813,
      "Ġox": 3814,
      "Ġsample": 3815,
      "ynam": 3816,
      "Ġparty": 3817,
      "Ġsources": 3818,
      "Ġround": 3819,
      "Ġconcent": 3820,
      "Ġcontaining": 3821,
      "Ġexec": 3822,
      "ĠCalifornia": 3823,
      "ĠResearch": 3824,
      "ratic": 3825,
      "ouncil": 3826,
      "vious": 3827,
      "Ġmis": 3828,
      "Ġexcl": 3829,
      "cks": 3830,
      "Ġinsp": 3831,
      "Ġsociety": 3832,
      "Ġvalu": 3833,
      "AM": 3834,
      "Ġtherap": 3835,
      "Ġtrack": 3836,
      "Ġpowerful": 3837,
      "ĠMark": 3838,
      "Ġblog": 3839,
      "Ġmachine": 3840,
      "abit": 3841,
      "Ġcritical": 3842,
      "Ġroll": 3843,
      "Ġerror": 3844,
      "reed": 3845,
      "itely": 3846,
      "Ġfem": 3847,
      "Ġcit": 3848,
      "Ġdiscover": 3849,
      "Ġdat": 3850,
      "Ġconstit": 3851,
      "Ġâī": 3852,
      "times": 3853,
      "Ġseparate": 3854,
      "Ġalone": 3855,
      "Ġformed": 3856,
      "Ġintegral": 3857,
      "cast": 3858,
      "Ġorigin": 3859,
      "ĠHigh": 3860,
      "Ġstore": 3861,
      "Ġcapital": 3862,
      "name": 3863,
      "Ġaccom": 3864,
      "Ġrelationships": 3865,
      "ault": 3866,
      "nes": 3867,
      "isms": 3868,
      "Ġwoman": 3869,
      "Ġthous": 3870,
      "alpha": 3871,
      "amb": 3872,
      "Ġallowed": 3873,
      "Ġwrong": 3874,
      "==": 3875,
      "Ġhighly": 3876,
      "Ġvo": 3877,
      "}$,": 3878,
      "Ġfeet": 3879,
      "],": 3880,
      "Ġsurround": 3881,
      "Ġcurve": 3882,
      "ester": 3883,
      "Ġapplied": 3884,
      "ĠOb": 3885,
      "ĠUsing": 3886,
      "oming": 3887,
      "Ġ22": 3888,
      "Ġenvironmental": 3889,
      "Ġdepending": 3890,
      "Ġopportunity": 3891,
      "Re": 3892,
      "Ġlack": 3893,
      "Ġmap": 3894,
      "Ġ28": 3895,
      "Ġrepl": 3896,
      "anging": 3897,
      "Ġdifferences": 3898,
      "Ġ$$\\": 3899,
      "Ġrates": 3900,
      "Ġaware": 3901,
      "aign": 3902,
      "Ġ2014": 3903,
      "Ġdark": 3904,
      "rie": 3905,
      "Ġadminist": 3906,
      "ulate": 3907,
      "Ġleads": 3908,
      "Ġlegal": 3909,
      "34": 3910,
      "Ġimages": 3911,
      "ĠIm": 3912,
      "ris": 3913,
      "izations": 3914,
      "Ġnearly": 3915,
      "apter": 3916,
      "Ġplayer": 3917,
      "Ġturned": 3918,
      "ĠCounty": 3919,
      "ĠSeptember": 3920,
      "36": 3921,
      "Ġimpl": 3922,
      "ĠMr": 3923,
      "Ġchanging": 3924,
      "ĊĠ": 3925,
      "Ġpieces": 3926,
      "Ġprime": 3927,
      "Ġsymptoms": 3928,
      "urg": 3929,
      "orph": 3930,
      "Ġfamilies": 3931,
      "ĠWash": 3932,
      "Ġgradu": 3933,
      "Ġattack": 3934,
      "ifies": 3935,
      "ondon": 3936,
      "ulated": 3937,
      "Ġanyone": 3938,
      "stitution": 3939,
      "ĠInc": 3940,
      "eters": 3941,
      "Ġ26": 3942,
      "Ġcarry": 3943,
      "undred": 3944,
      "Ġspect": 3945,
      "arter": 3946,
      "ĠEven": 3947,
      "Ġdiscussion": 3948,
      "Ġhealthy": 3949,
      "ĠGreat": 3950,
      "Ġinstit": 3951,
      "Ġstaff": 3952,
      "ĠRo": 3953,
      "Ġplayed": 3954,
      "Ġdevice": 3955,
      "Ġvisual": 3956,
      "?\"": 3957,
      "Ġfinally": 3958,
      "Ġeat": 3959,
      "Our": 3960,
      "osite": 3961,
      "Ġclosed": 3962,
      "Ġstructures": 3963,
      "men": 3964,
      "Ġstories": 3965,
      "ĠGerman": 3966,
      "arian": 3967,
      "udd": 3968,
      "Ġmiddle": 3969,
      "Ġ2007": 3970,
      "Ġappears": 3971,
      "Ġdesired": 3972,
      "abet": 3973,
      "ĠSystem": 3974,
      "Ġcrucial": 3975,
      "Ġshared": 3976,
      "ĠEuropean": 3977,
      "ague": 3978,
      "Ġeffort": 3979,
      "Ġonto": 3980,
      "ession": 3981,
      "Ġdead": 3982,
      "key": 3983,
      "Ġson": 3984,
      "Ġfelt": 3985,
      "ricult": 3986,
      "70": 3987,
      "Un": 3988,
      "Ġpoor": 3989,
      "life": 3990,
      "Ġremo": 3991,
      "Ġexpon": 3992,
      "ĠMich": 3993,
      "Ġfields": 3994,
      "Ġadvant": 3995,
      "Ġpresident": 3996,
      "Ġconstruction": 3997,
      "Ġvectors": 3998,
      "Ġmeasures": 3999,
      "Ġnucle": 4000,
      "Ġrob": 4001,
      "iable": 4002,
      "Ġsleep": 4003,
      "Ġbul": 4004,
      "Ġwonder": 4005,
      "ĠDecember": 4006,
      "HE": 4007,
      "ĠDavid": 4008,
      "Ġmeeting": 4009,
      "Ġearn": 4010,
      "Ġexploring": 4011,
      "Ġsaying": 4012,
      "plication": 4013,
      "Ġutil": 4014,
      "ube": 4015,
      "Ġbab": 4016,
      "arden": 4017,
      "Ġvolume": 4018,
      "ĠSer": 4019,
      "ĠAre": 4020,
      "Ġconnected": 4021,
      "overy": 4022,
      "ĠâĢ¦": 4023,
      "Ġcarbon": 4024,
      "Ġsuccessful": 4025,
      "Ġdemand": 4026,
      "inations": 4027,
      "Ġtele": 4028,
      "However": 4029,
      "Ġready": 4030,
      "Ġactive": 4031,
      "orge": 4032,
      "lines": 4033,
      "Ġspecifically": 4034,
      "Ġoptim": 4035,
      "mitted": 4036,
      "Ġpolynomial": 4037,
      "Ġconnection": 4038,
      "Ġoption": 4039,
      "urance": 4040,
      "Ġdefine": 4041,
      "aling": 4042,
      "log": 4043,
      "Ġpicture": 4044,
      "!!": 4045,
      "Ġdro": 4046,
      "Ġcivil": 4047,
      "Ġsche": 4048,
      "Ġsett": 4049,
      "75": 4050,
      "Ġtend": 4051,
      "39": 4052,
      "Ġfather": 4053,
      "Â°": 4054,
      "Ġeight": 4055,
      "ville": 4056,
      "ros": 4057,
      "umber": 4058,
      "Ġprojects": 4059,
      "Ġprinciples": 4060,
      "ĠOctober": 4061,
      "',": 4062,
      "rab": 4063,
      "That": 4064,
      "ĠFl": 4065,
      "ooking": 4066,
      "Ġqual": 4067,
      "ĠNovember": 4068,
      "aks": 4069,
      "lin": 4070,
      "Ġwasn": 4071,
      "useum": 4072,
      "Ġrecip": 4073,
      "Ġbrand": 4074,
      "Ġhol": 4075,
      "Int": 4076,
      "ĠPress": 4077,
      "iced": 4078,
      "Ġsust": 4079,
      "ĠSub": 4080,
      "Ġspaces": 4081,
      "Ġidentify": 4082,
      "Ġexhib": 4083,
      "ĠSan": 4084,
      "ords": 4085,
      "After": 4086,
      "Ġsea": 4087,
      "Ġscenari": 4088,
      "Ġoperation": 4089,
      "Ġ2015": 4090,
      "ĠBr": 4091,
      "Ġguess": 4092,
      "Ġcombination": 4093,
      "ogle": 4094,
      "Ġderivative": 4095,
      "Ġwave": 4096,
      "Ġspot": 4097,
      "Ġsort": 4098,
      "Ġwat": 4099,
      "Ġstage": 4100,
      "ĠOf": 4101,
      "Ġcapac": 4102,
      "Ġknew": 4103,
      "ĠAlso": 4104,
      "Ġmiles": 4105,
      "ken": 4106,
      "Ġeth": 4107,
      "Ġvaluable": 4108,
      "Sh": 4109,
      "Ġinform": 4110,
      "inter": 4111,
      "ipment": 4112,
      "Ġstyle": 4113,
      "Ġexplain": 4114,
      "^{-": 4115,
      "+\\": 4116,
      "ĠDis": 4117,
      "ingly": 4118,
      "Ġsetting": 4119,
      "Ġsites": 4120,
      "ĠMany": 4121,
      "Ġemot": 4122,
      "Ġcharge": 4123,
      "Ġalternative": 4124,
      "enty": 4125,
      "Ġgain": 4126,
      "iately": 4127,
      "ny": 4128,
      "inating": 4129,
      "Ġcompar": 4130,
      "ĠInstead": 4131,
      "Ġrap": 4132,
      "Ġplayers": 4133,
      "Ġarrange": 4134,
      "ologies": 4135,
      "Ġtoward": 4136,
      "ĠCour": 4137,
      "quad": 4138,
      "ruary": 4139,
      "Ġfully": 4140,
      "idents": 4141,
      "Ġefforts": 4142,
      "wide": 4143,
      "Ġnice": 4144,
      ")}": 4145,
      "Ġveh": 4146,
      "Ġpurpose": 4147,
      "Ġapproximately": 4148,
      "Hello": 4149,
      "arant": 4150,
      "Ġscientific": 4151,
      "Ġtask": 4152,
      "osen": 4153,
      "rest": 4154,
      "Ġload": 4155,
      "ĠCommun": 4156,
      "Ġexpand": 4157,
      "Ġvalid": 4158,
      "OT": 4159,
      "ĠChristian": 4160,
      "aled": 4161,
      "ĠInstitute": 4162,
      "ician": 4163,
      "ux": 4164,
      "Ġexpressed": 4165,
      "Ġdigital": 4166,
      "Ġimportance": 4167,
      "Ġadvanced": 4168,
      "Ġdeveloping": 4169,
      "Ġvel": 4170,
      "eper": 4171,
      "style": 4172,
      "lict": 4173,
      "Ġrock": 4174,
      "Ġtransport": 4175,
      "Ġenh": 4176,
      "Ġfresh": 4177,
      "Ġmessage": 4178,
      "uzz": 4179,
      "Ġple": 4180,
      "Ġcombined": 4181,
      "Ġeventually": 4182,
      "othes": 4183,
      "Ġmotion": 4184,
      "All": 4185,
      "ategy": 4186,
      "ĠCong": 4187,
      "Ġprove": 4188,
      "Ġchallenges": 4189,
      "Be": 4190,
      "ĠIndia": 4191,
      "Ġrecall": 4192,
      "Ġrespond": 4193,
      "oul": 4194,
      "Ġdiagn": 4195,
      "ĠWashington": 4196,
      "Ġseg": 4197,
      "Ġdamage": 4198,
      "Ġice": 4199,
      "Ġadop": 4200,
      "Ġmov": 4201,
      "Ġcopy": 4202,
      "ĠLondon": 4203,
      "Ġhundred": 4204,
      "âĢī": 4205,
      "rael": 4206,
      "Ġrepresented": 4207,
      "ferences": 4208,
      "pre": 4209,
      "Ġsolid": 4210,
      "ĠEast": 4211,
      "Ġtried": 4212,
      "Ġrelease": 4213,
      "rows": 4214,
      "55": 4215,
      "Ġnames": 4216,
      "Ġdiag": 4217,
      "Ġholds": 4218,
      "Ġpsych": 4219,
      "ocol": 4220,
      "Ġeye": 4221,
      "ĠRepublic": 4222,
      "Ġdespite": 4223,
      "Ġexpressions": 4224,
      "Ġtouch": 4225,
      "rices": 4226,
      "Ġfavorite": 4227,
      "iers": 4228,
      "iant": 4229,
      "Ġupper": 4230,
      "....": 4231,
      "Ġtoy": 4232,
      "Ġtrig": 4233,
      "Ġadjust": 4234,
      "ĠCanada": 4235,
      "Ġrecommend": 4236,
      "Ġroots": 4237,
      "ĠTechn": 4238,
      "bed": 4239,
      "Ġmaster": 4240,
      "Ġcommunities": 4241,
      "ĠBlack": 4242,
      "Ġcontinuous": 4243,
      "Ġweak": 4244,
      "pen": 4245,
      "ĠCO": 4246,
      "Ġfear": 4247,
      "Ġdiet": 4248,
      "Ġmob": 4249,
      "Ġhighest": 4250,
      "ste": 4251,
      "Ġdrive": 4252,
      "Ġspirit": 4253,
      "orthern": 4254,
      "Ġadapt": 4255,
      "Ġperhaps": 4256,
      "Ġcustomers": 4257,
      "Ġwest": 4258,
      "mi": 4259,
      "Ġallowing": 4260,
      "col": 4261,
      "rant": 4262,
      "Ġphone": 4263,
      "Ġprecise": 4264,
      "Ġhuge": 4265,
      "Ġparalle": 4266,
      "Ġyields": 4267,
      "Ġ2017": 4268,
      "Ġtypically": 4269,
      "Ġcouple": 4270,
      "align": 4271,
      "ĠGreen": 4272,
      "32": 4273,
      "rete": 4274,
      "Ġletter": 4275,
      "yd": 4276,
      "Ġspent": 4277,
      "rical": 4278,
      "These": 4279,
      "Ġserve": 4280,
      "Ġchanged": 4281,
      "cean": 4282,
      "ĠSte": 4283,
      "Ġsecret": 4284,
      "Ġdomain": 4285,
      "38": 4286,
      "tr": 4287,
      "vest": 4288,
      ")$,": 4289,
      "Ġrare": 4290,
      "Ġq": 4291,
      "uries": 4292,
      "Ġreleased": 4293,
      "Ġminimum": 4294,
      "Ġacid": 4295,
      "Ġhour": 4296,
      "Ġbeg": 4297,
      "Ġlooked": 4298,
      "Ġstrugg": 4299,
      "44": 4300,
      "ĠAut": 4301,
      "rief": 4302,
      "$$\\": 4303,
      "Ġdescribe": 4304,
      "Ġstrength": 4305,
      "'d": 4306,
      "ĠEngland": 4307,
      "Ġattract": 4308,
      "Ġdealing": 4309,
      "Ġorganization": 4310,
      "Ġimmediately": 4311,
      "Ġnovel": 4312,
      "Ġcauses": 4313,
      "ET": 4314,
      "Ġnorth": 4315,
      "Ġgold": 4316,
      "ĠVol": 4317,
      "Ġenter": 4318,
      "Ġbottom": 4319,
      "ĠOff": 4320,
      "Ġmaybe": 4321,
      "Ġinfluence": 4322,
      "sect": 4323,
      "Ġforest": 4324,
      "ford": 4325,
      "zer": 4326,
      "Ġleaves": 4327,
      "Ġmole": 4328,
      "Ġ2006": 4329,
      "Ġwait": 4330,
      "ĠNet": 4331,
      "outhern": 4332,
      "Ġdouble": 4333,
      "Ġhous": 4334,
      "ĠMor": 4335,
      "Ġ\\(": 4336,
      "ded": 4337,
      "Ġtriangle": 4338,
      "Ġmer": 4339,
      "Ġmorning": 4340,
      "que": 4341,
      "anged": 4342,
      "Ġincreases": 4343,
      "Ġapprec": 4344,
      "reet": 4345,
      "azing": 4346,
      "Ġsupply": 4347,
      "Ġ2016": 4348,
      "Ġcampaign": 4349,
      "Ġdry": 4350,
      "Ġcry": 4351,
      "Ġalgorithm": 4352,
      "ternal": 4353,
      "Ġfederal": 4354,
      "Ġplaced": 4355,
      "itect": 4356,
      "Ġcontract": 4357,
      "sub": 4358,
      "Ġdevices": 4359,
      "ĠDes": 4360,
      "ĠChurch": 4361,
      "Ġreference": 4362,
      "ĠIS": 4363,
      "ĠSen": 4364,
      "Ġanimal": 4365,
      "Ġacqu": 4366,
      "ek": 4367,
      "ounced": 4368,
      "Ġtells": 4369,
      "mar": 4370,
      "Ġanti": 4371,
      "Ġdoctor": 4372,
      "board": 4373,
      "Ġfixed": 4374,
      "Ġmut": 4375,
      "ĠAir": 4376,
      "Ġcitiz": 4377,
      "Ġencount": 4378,
      "ĠDem": 4379,
      "Ġsave": 4380,
      "Ġhappy": 4381,
      "change": 4382,
      "otic": 4383,
      "Ġcommunic": 4384,
      "ĠGeneral": 4385,
      "gra": 4386,
      "Ġdenotes": 4387,
      "Î¸": 4388,
      "Ġpatient": 4389,
      "Ġpassed": 4390,
      "Ġtour": 4391,
      "Ġkn": 4392,
      "ospital": 4393,
      "II": 4394,
      "ĠSee": 4395,
      "Ġbur": 4396,
      "oses": 4397,
      "Ġexisting": 4398,
      "Ġcomfort": 4399,
      "Ġcomment": 4400,
      "Ġtrust": 4401,
      "ĠGovern": 4402,
      "ida": 4403,
      "Ġfrequency": 4404,
      "ĠRiver": 4405,
      "Ġsouth": 4406,
      "Ġtruth": 4407,
      "ned": 4408,
      "EC": 4409,
      "Ġcompl": 4410,
      "```": 4411,
      "Con": 4412,
      "Ġborn": 4413,
      "rian": 4414,
      "Ġvill": 4415,
      "Ġcommand": 4416,
      "Ġplans": 4417,
      "Ġ29": 4418,
      "Ġemp": 4419,
      "37": 4420,
      "Ġassist": 4421,
      "Ġturns": 4422,
      "eration": 4423,
      "ĠAccording": 4424,
      "raw": 4425,
      "Since": 4426,
      "Ġdetermined": 4427,
      "ĠMathemat": 4428,
      "Ġlaws": 4429,
      "Ġscale": 4430,
      "Ġresponsible": 4431,
      "omb": 4432,
      "Ġcommunication": 4433,
      "47": 4434,
      "wood": 4435,
      "alt": 4436,
      "oke": 4437,
      "Ġintroduced": 4438,
      "Ġhear": 4439,
      "AB": 4440,
      "with": 4441,
      "ĠJournal": 4442,
      "uit": 4443,
      "icks": 4444,
      "ĠThom": 4445,
      "Ġotherwise": 4446,
      "anch": 4447,
      ")$.": 4448,
      "Ġeconomy": 4449,
      "Ġveloc": 4450,
      "ipl": 4451,
      "Ġvary": 4452,
      "Ġinnov": 4453,
      "Ġmemory": 4454,
      "48": 4455,
      "Ġfasc": 4456,
      "eds": 4457,
      "ĠProgram": 4458,
      "Is": 4459,
      "Ġasse": 4460,
      "Ġreplace": 4461,
      "ĠAN": 4462,
      "Ġcolors": 4463,
      "ĠAfrican": 4464,
      "eff": 4465,
      "ira": 4466,
      "Ġformat": 4467,
      "They": 4468,
      "Ġlies": 4469,
      "Ġworkers": 4470,
      "Ġapproaches": 4471,
      "airs": 4472,
      "ĠBro": 4473,
      "ĠSam": 4474,
      "ĠJes": 4475,
      "Ġtransfer": 4476,
      "Ġbillion": 4477,
      "anish": 4478,
      "}.": 4479,
      "Ġcommerc": 4480,
      "Ġsch": 4481,
      "Ġstar": 4482,
      "Ġtrees": 4483,
      "Ġburn": 4484,
      "ĠTheir": 4485,
      "osure": 4486,
      "urt": 4487,
      "ĠSupp": 4488,
      "ĠRet": 4489,
      "Ġmoved": 4490,
      "iling": 4491,
      "acing": 4492,
      "Ġphilos": 4493,
      "Ġobtained": 4494,
      "Ġcloser": 4495,
      "Ġprocesses": 4496,
      "ael": 4497,
      "Ġfine": 4498,
      "Ġdied": 4499,
      "Ġancient": 4500,
      "Ġratio": 4501,
      "Ġlabor": 4502,
      "Ġplat": 4503,
      "Ġmill": 4504,
      "iated": 4505,
      "rogen": 4506,
      "Ġrelation": 4507,
      "Ġbalance": 4508,
      "Ġimag": 4509,
      "Ġ2005": 4510,
      "Ġcounter": 4511,
      "Ġideal": 4512,
      "Ġproof": 4513,
      "Ġaw": 4514,
      "comes": 4515,
      "Ġobserved": 4516,
      "ĠIsrael": 4517,
      "field": 4518,
      "uman": 4519,
      "$\\": 4520,
      "Ġcomplicated": 4521,
      "ĠWeb": 4522,
      "Ġopportunities": 4523,
      "Ġequivalent": 4524,
      "Ġtesting": 4525,
      "Ġslightly": 4526,
      "Ġhair": 4527,
      "Ġdegrees": 4528,
      "Ġpreviously": 4529,
      "Ġ${": 4530,
      "berg": 4531,
      "ĠUp": 4532,
      "ĠVir": 4533,
      "aughter": 4534,
      "ĠDec": 4535,
      "Ġoccurs": 4536,
      "Ġtheorem": 4537,
      "tee": 4538,
      "Ġcompre": 4539,
      "âĢĿ.": 4540,
      "Ġconsidering": 4541,
      "icip": 4542,
      "Ġshowing": 4543,
      "Ġfamiliar": 4544,
      "aint": 4545,
      "ingu": 4546,
      "Ġpen": 4547,
      "Ġrapid": 4548,
      "celer": 4549,
      "irect": 4550,
      "PS": 4551,
      "Ġbond": 4552,
      "Ġtopic": 4553,
      "DA": 4554,
      "Ġseven": 4555,
      "ĠAfrica": 4556,
      "ourney": 4557,
      "IV": 4558,
      "ii": 4559,
      "uting": 4560,
      "Ġintegers": 4561,
      "My": 4562,
      "Ġinterval": 4563,
      "onic": 4564,
      "ĠEvery": 4565,
      "Ġacade": 4566,
      "ĠRead": 4567,
      "estic": 4568,
      "Ġsounds": 4569,
      "ĠFebruary": 4570,
      "mathrm": 4571,
      "Ġtests": 4572,
      "Ġhop": 4573,
      "stract": 4574,
      "olf": 4575,
      "Ġplane": 4576,
      "Ġmix": 4577,
      "Ġremaining": 4578,
      "Ġchurch": 4579,
      "Ġequipment": 4580,
      "Ġproceed": 4581,
      "ĠPhil": 4582,
      "Ġ(-": 4583,
      "Ġteachers": 4584,
      "ĠAv": 4585,
      "Ġinterested": 4586,
      "mosp": 4587,
      "ĠDef": 4588,
      "05": 4589,
      "Ġfinite": 4590,
      "uild": 4591,
      "Ġbank": 4592,
      "Ġproposed": 4593,
      "Ġbenefit": 4594,
      "Ġmyself": 4595,
      "Ġolder": 4596,
      "gn": 4597,
      "Ġreasons": 4598,
      "igma": 4599,
      "Ġrequest": 4600,
      "})": 4601,
      "}=": 4602,
      "Ġtransl": 4603,
      "OU": 4604,
      "ĠHol": 4605,
      "Ġsignificantly": 4606,
      "och": 4607,
      "Ġapart": 4608,
      "Ġmathematicians": 4609,
      "ipping": 4610,
      "Ġexercise": 4611,
      "box": 4612,
      "ico": 4613,
      "Ġkeeping": 4614,
      "Ġhoriz": 4615,
      "ortion": 4616,
      "Ġcareer": 4617,
      "ĠSpecifically": 4618,
      "ĠBecause": 4619,
      "raint": 4620,
      "ĠEduc": 4621,
      "Ġclin": 4622,
      "Ġquad": 4623,
      "Ġpoll": 4624,
      "Ġpet": 4625,
      "lant": 4626,
      "Ġrace": 4627,
      "Ġrich": 4628,
      "Ġsustain": 4629,
      "down": 4630,
      "Ġtang": 4631,
      "Ġband": 4632,
      "zing": 4633,
      "Ġshowed": 4634,
      "Ġstrategy": 4635,
      "Ġnor": 4636,
      "ĠProf": 4637,
      "ancing": 4638,
      "Ġtechnique": 4639,
      "Ġpresence": 4640,
      "Ġcredit": 4641,
      "Ġcold": 4642,
      "body": 4643,
      "acters": 4644,
      "ortunately": 4645,
      "omy": 4646,
      "band": 4647,
      "Ġcelebr": 4648,
      "zy": 4649,
      "Ġsubt": 4650,
      "Ġconsists": 4651,
      "coh": 4652,
      "ellig": 4653,
      "Ġconclusion": 4654,
      "Ġcontroll": 4655,
      "ĠPost": 4656,
      "Ġdivided": 4657,
      "ocal": 4658,
      "Ġrespectively": 4659,
      "ĠMa": 4660,
      "Ġregions": 4661,
      "49": 4662,
      "Sp": 4663,
      "Ġtitle": 4664,
      "ĠIts": 4665,
      "Ġwal": 4666,
      "Ġteaching": 4667,
      "Ġ90": 4668,
      "house": 4669,
      "Ġmere": 4670,
      "pective": 4671,
      "gypt": 4672,
      "dx": 4673,
      "apers": 4674,
      "Ġinterpret": 4675,
      "ĠJames": 4676,
      "Ġinequ": 4677,
      "ĠDel": 4678,
      "Ġhelped": 4679,
      "la": 4680,
      "Ġleaving": 4681,
      "ĠAssociation": 4682,
      "Ġfilled": 4683,
      "mark": 4684,
      "Ġsmooth": 4685,
      "amma": 4686,
      "Ġannual": 4687,
      "edia": 4688,
      "iform": 4689,
      "Ġangles": 4690,
      "Ġbreat": 4691,
      "ĠUnion": 4692,
      "No": 4693,
      "ĠAustralia": 4694,
      "Ġcook": 4695,
      "Ġ)": 4696,
      "Ġcollege": 4697,
      "Ġsymmet": 4698,
      "Ġpul": 4699,
      "While": 4700,
      "idden": 4701,
      "Ġnumerous": 4702,
      "Ġdynam": 4703,
      "ĠPort": 4704,
      "Ġchosen": 4705,
      "Ġrect": 4706,
      "Ġunf": 4707,
      "Ġreports": 4708,
      "65": 4709,
      "PA": 4710,
      "ipped": 4711,
      "Ġrelevant": 4712,
      "Ġprefer": 4713,
      "Ġrain": 4714,
      "pected": 4715,
      "199": 4716,
      "Ġprotection": 4717,
      "Ġpolice": 4718,
      "Ġheavy": 4719,
      "Next": 4720,
      "icit": 4721,
      "Ġpairs": 4722,
      "ĠHistory": 4723,
      "Ġphen": 4724,
      "vered": 4725,
      "Ġstatus": 4726,
      "78": 4727,
      "ola": 4728,
      "ĠDevelop": 4729,
      "Ġcollabor": 4730,
      "asp": 4731,
      "Ġ{\\": 4732,
      "Ġfeeling": 4733,
      "Ġdoub": 4734,
      "odies": 4735,
      "Ġguarant": 4736,
      "ĠGroup": 4737,
      "fered": 4738,
      "Ġcouldn": 4739,
      "Ġrequirements": 4740,
      "Ġexperiences": 4741,
      "EM": 4742,
      "].": 4743,
      "do": 4744,
      "Ġwish": 4745,
      "Ġclasses": 4746,
      "ĠCollege": 4747,
      "ĠWind": 4748,
      "Ġpartners": 4749,
      "imin": 4750,
      "Ġcandid": 4751,
      "rum": 4752,
      "ĠOver": 4753,
      "Ġshapes": 4754,
      "Ġrise": 4755,
      "Ġdeeper": 4756,
      "Ġindex": 4757,
      "ker": 4758,
      "Ġlimits": 4759,
      "ĠSur": 4760,
      "Ġking": 4761,
      "phi": 4762,
      "Ġinvolve": 4763,
      "ĠUse": 4764,
      "Ġpeace": 4765,
      "Ġsend": 4766,
      "iter": 4767,
      "Ġsharing": 4768,
      "Ġincome": 4769,
      "Ġring": 4770,
      "force": 4771,
      "Ġdirector": 4772,
      "Ġexcell": 4773,
      "Ġweather": 4774,
      "Ġteacher": 4775,
      "Ġlatest": 4776,
      "Ġhappened": 4777,
      "ĠAp": 4778,
      "Ġspring": 4779,
      "Ġeffectively": 4780,
      "Ġresistance": 4781,
      "Ġcircum": 4782,
      "_{\\": 4783,
      "Ġsales": 4784,
      "ING": 4785,
      "Ġreligious": 4786,
      ":**": 4787,
      "ĠOnce": 4788,
      "Ġgrand": 4789,
      "ressed": 4790,
      "Ġtwice": 4791,
      "olar": 4792,
      "Ġlinks": 4793,
      "inese": 4794,
      "Ġegg": 4795,
      "Ġvirt": 4796,
      "za": 4797,
      "cont": 4798,
      "imately": 4799,
      "Ġrepresenting": 4800,
      "eared": 4801,
      "matrix": 4802,
      "Ġrelatively": 4803,
      "Ġincorpor": 4804,
      "xi": 4805,
      "ĠSociety": 4806,
      "uses": 4807,
      "Ġknows": 4808,
      "Ġinstruct": 4809,
      "Ġcharacters": 4810,
      "ĠEqu": 4811,
      "iences": 4812,
      "ĠInternet": 4813,
      "DF": 4814,
      "ij": 4815,
      "ĠSun": 4816,
      "lamb": 4817,
      "ĠPal": 4818,
      "ĠNews": 4819,
      "works": 4820,
      "Ġexplan": 4821,
      "orage": 4822,
      "Ġoffered": 4823,
      "Ġfiles": 4824,
      "ĠHam": 4825,
      "Ġjournal": 4826,
      "88": 4827,
      "iders": 4828,
      "ormal": 4829,
      "lambda": 4830,
      "Ġcomponent": 4831,
      "rier": 4832,
      "issions": 4833,
      "CC": 4834,
      "ÏĢ": 4835,
      "urb": 4836,
      "Ġtast": 4837,
      "Ġplanning": 4838,
      "Ġaspects": 4839,
      "Ġsevere": 4840,
      "ĠUK": 4841,
      "usive": 4842,
      "Ġhumans": 4843,
      "Ġlived": 4844,
      "ĠConsequently": 4845,
      "AD": 4846,
      "Ġreact": 4847,
      "Ġveget": 4848,
      "Ġraised": 4849,
      "Ġmanip": 4850,
      "Ġpractices": 4851,
      "Ġplatform": 4852,
      "Ġsoil": 4853,
      "ĠClass": 4854,
      "Ġvelocity": 4855,
      "Ġfig": 4856,
      "ĠTwo": 4857,
      "water": 4858,
      "Ġlic": 4859,
      "ĠEgypt": 4860,
      "Ġmanage": 4861,
      "Ġjourney": 4862,
      "Ġbackground": 4863,
      "Ġexperiment": 4864,
      "Ġfract": 4865,
      "ĠRich": 4866,
      "Ġglass": 4867,
      "ĠGoogle": 4868,
      "phas": 4869,
      "Ġreduced": 4870,
      "cking": 4871,
      "Ġmode": 4872,
      "ĠAmericans": 4873,
      "roy": 4874,
      "Ġoutcomes": 4875,
      "Ġsolar": 4876,
      "ago": 4877,
      "Ġexperim": 4878,
      "Ġstrategies": 4879,
      "43": 4880,
      "ĠDuring": 4881,
      "Ġwinter": 4882,
      "ION": 4883,
      "Ġcultural": 4884,
      "Ġalt": 4885,
      "ĠJesus": 4886,
      "46": 4887,
      "Ġactions": 4888,
      "Ġoccup": 4889,
      "appy": 4890,
      "rect": 4891,
      "ĠCur": 4892,
      "Ġfreed": 4893,
      "Ġneur": 4894,
      "ST": 4895,
      "pm": 4896,
      "Ġserved": 4897,
      "gence": 4898,
      "ĠCouncil": 4899,
      "ĠOut": 4900,
      "rupt": 4901,
      "Ġwife": 4902,
      "Ġmatrices": 4903,
      "Ġopin": 4904,
      "Ġdanger": 4905,
      "atever": 4906,
      "ĠBen": 4907,
      "ĠRoman": 4908,
      "Ġradio": 4909,
      "From": 4910,
      "fra": 4911,
      "Ġexamine": 4912,
      "Ġexciting": 4913,
      "iance": 4914,
      "Ġcalculations": 4915,
      "Ġmission": 4916,
      "rate": 4917,
      "Ġmental": 4918,
      "Ġreached": 4919,
      "asion": 4920,
      "Ġdu": 4921,
      "Ġsigns": 4922,
      "Ġedge": 4923,
      "Ġclearly": 4924,
      "vis": 4925,
      "Ġmist": 4926,
      "Ġcovered": 4927,
      "Ġspl": 4928,
      "Ġstandards": 4929,
      "}}{": 4930,
      "udes": 4931,
      "Ġmajority": 4932,
      "LL": 4933,
      "Ġfloor": 4934,
      "Ġdownload": 4935,
      "Some": 4936,
      "that": 4937,
      "anges": 4938,
      "ĠWhite": 4939,
      "ilon": 4940,
      "Ġremind": 4941,
      "'(": 4942,
      "ĠKeep": 4943,
      ")|": 4944,
      "display": 4945,
      "Ġfaster": 4946,
      "Ġrig": 4947,
      "Ġconflict": 4948,
      "Ġargument": 4949,
      "Ġstuff": 4950,
      "Ġ2000": 4951,
      "Ġwants": 4952,
      "Ġtrend": 4953,
      "ĠCourt": 4954,
      "leg": 4955,
      "Ġhistorical": 4956,
      "Ġcoast": 4957,
      "Ġmeant": 4958,
      "Ġlanguages": 4959,
      "ĠGreek": 4960,
      "Ġfuel": 4961,
      "Ġgeneration": 4962,
      "Ġcast": 4963,
      "Ġcommercial": 4964,
      "ĠFound": 4965,
      "New": 4966,
      "ĠPM": 4967,
      "Ġnotes": 4968,
      "ĠChild": 4969,
      "Ġdepends": 4970,
      "ĠEv": 4971,
      "vision": 4972,
      "Ġsav": 4973,
      "oting": 4974,
      "Ġadvantage": 4975,
      "ĠRel": 4976,
      "Ġatmosp": 4977,
      "ĠRober": 4978,
      "Ġphase": 4979,
      "Ġhabit": 4980,
      "orders": 4981,
      "inn": 4982,
      "erved": 4983,
      "rence": 4984,
      "oration": 4985,
      "Ġdenoted": 4986,
      "Ġsufficient": 4987,
      "ĠNote": 4988,
      "Ġ80": 4989,
      "Ġtim": 4990,
      "Ġcars": 4991,
      "porary": 4992,
      "Ġsole": 4993,
      "Ġassume": 4994,
      "Ġfamous": 4995,
      "rary": 4996,
      "uration": 4997,
      "ĠPaul": 4998,
      "Ġperformed": 4999,
      "cohol": 5000,
      "Ġstock": 5001,
      "icing": 5002,
      "ĠCongress": 5003,
      "ads": 5004,
      "####": 5005,
      "Ġsignal": 5006,
      "well": 5007,
      "ishes": 5008,
      "ev": 5009,
      "Ġcore": 5010,
      "Ġrefers": 5011,
      "bre": 5012,
      "Ġgoals": 5013,
      "ibilities": 5014,
      "eech": 5015,
      "Ġconsequ": 5016,
      "ĠDist": 5017,
      "Ġunderlying": 5018,
      "rat": 5019,
      "Ġpages": 5020,
      "Ġopposite": 5021,
      "Ġpush": 5022,
      "icated": 5023,
      "Ġpull": 5024,
      "ĠLear": 5025,
      "Ġdisapp": 5026,
      "Ġsell": 5027,
      "Ġinterview": 5028,
      "Ġtalking": 5029,
      "Ġidentified": 5030,
      "Ab": 5031,
      "ĠTest": 5032,
      "ĠMal": 5033,
      "Ġfoods": 5034,
      "ĠTV": 5035,
      "Ġexpert": 5036,
      "Ġvit": 5037,
      "31": 5038,
      "Ġfirm": 5039,
      "ĠChinese": 5040,
      "Ġarchitect": 5041,
      "Ġdoll": 5042,
      "Ġassign": 5043,
      "Ġesc": 5044,
      "Ġtrou": 5045,
      "arge": 5046,
      "aker": 5047,
      "Ġacceler": 5048,
      "Ġaccurate": 5049,
      "ĠGeorge": 5050,
      "Ġrepresentation": 5051,
      "Ġshot": 5052,
      "rial": 5053,
      "ĠMiss": 5054,
      "ĠService": 5055,
      "Ġextremely": 5056,
      "Ġclub": 5057,
      "Ġpossess": 5058,
      "Ġ${\\": 5059,
      "Ġintegration": 5060,
      "?âĢĿ": 5061,
      "Ġcontrast": 5062,
      "Ġpaid": 5063,
      "inger": 5064,
      "asure": 5065,
      "ilit": 5066,
      "Ġreturned": 5067,
      "ĠPri": 5068,
      "Ġimplies": 5069,
      "Ġcitizens": 5070,
      "âĤģ": 5071,
      "ĠCle": 5072,
      "ĠGiven": 5073,
      "Ġletters": 5074,
      "ĠArch": 5075,
      "Ġexistence": 5076,
      "ĠBi": 5077,
      "Ġprotein": 5078,
      "ĠSum": 5079,
      "Ġreb": 5080,
      "hand": 5081,
      "Ġign": 5082,
      "Ġeigen": 5083,
      "section": 5084,
      "Ġcalculated": 5085,
      "ĠMart": 5086,
      "Ġodd": 5087,
      "Ġer": 5088,
      "Ġengineering": 5089,
      "OM": 5090,
      "ithms": 5091,
      "Ġclick": 5092,
      "Ġfaith": 5093,
      "Ġparallel": 5094,
      "{{": 5095,
      "Ġ195": 5096,
      "Ġprices": 5097,
      "Ġdivide": 5098,
      "displaystyle": 5099,
      "Ġfruit": 5100,
      "ĠTex": 5101,
      "Ġinternal": 5102,
      "Ġcycle": 5103,
      "Ġcompute": 5104,
      "ĠPeople": 5105,
      "bi": 5106,
      "Ġunivers": 5107,
      "Ġflat": 5108,
      "Ġphysics": 5109,
      "Ġobvious": 5110,
      "Ġbaby": 5111,
      "iled": 5112,
      "umin": 5113,
      "Ġconnections": 5114,
      "rite": 5115,
      "Ġbelief": 5116,
      "Ġbacter": 5117,
      "ĠFurther": 5118,
      "Ġ2004": 5119,
      "Te": 5120,
      "ĠAM": 5121,
      "Ġstation": 5122,
      "ĠWhy": 5123,
      "Ġcomprehens": 5124,
      "Ġstarts": 5125,
      "west": 5126,
      "cel": 5127,
      "Ġofficial": 5128,
      "idth": 5129,
      "Ġsen": 5130,
      "add": 5131,
      "eps": 5132,
      "Ġamazing": 5133,
      "Ġdivision": 5134,
      "Ġ(\\": 5135,
      "Ġderived": 5136,
      "Ġisol": 5137,
      "ressive": 5138,
      "ĠFrance": 5139,
      "oyal": 5140,
      "Ġtiss": 5141,
      "ĠForm": 5142,
      "Ġkid": 5143,
      "Ġreality": 5144,
      "Ġrecords": 5145,
      "Ġsituations": 5146,
      "Ġpowers": 5147,
      "Ġplot": 5148,
      "bert": 5149,
      "ĠMex": 5150,
      "Ġclosely": 5151,
      "Ġbill": 5152,
      "Ġemployees": 5153,
      "Ġagricult": 5154,
      "ĠSimilar": 5155,
      "hetic": 5156,
      "Ġ35": 5157,
      "ishing": 5158,
      "Ġbrother": 5159,
      "itors": 5160,
      "partial": 5161,
      "Ġmultiplication": 5162,
      "uding": 5163,
      "pass": 5164,
      "ĠFlor": 5165,
      "espite": 5166,
      "Ġbelieved": 5167,
      "Ġthousands": 5168,
      "ĠHel": 5169,
      "Ġcompleted": 5170,
      "ett": 5171,
      "ĠBay": 5172,
      "Ġap": 5173,
      "ĠÂł": 5174,
      "Ġdoor": 5175,
      "AP": 5176,
      "onday": 5177,
      "while": 5178,
      "Ġtiny": 5179,
      "ented": 5180,
      "ki": 5181,
      "atin": 5182,
      "Ġdecisions": 5183,
      "Ġinitially": 5184,
      "Ġregist": 5185,
      "Ġtopics": 5186,
      "Ġcra": 5187,
      "itter": 5188,
      "Ġhar": 5189,
      "Ġconsult": 5190,
      "abetes": 5191,
      "ean": 5192,
      "ĠBel": 5193,
      "Ġkept": 5194,
      "Ġdetect": 5195,
      "hors": 5196,
      "Ġdensity": 5197,
      "Ġarbit": 5198,
      "Ġsmart": 5199,
      "Ġgrade": 5200,
      "atically": 5201,
      "Ad": 5202,
      "LE": 5203,
      "Ġstring": 5204,
      "ĠInter": 5205,
      "udget": 5206,
      "can": 5207,
      "Ġchain": 5208,
      "alse": 5209,
      "Ġinvestment": 5210,
      "Ġcertainly": 5211,
      "Ġlabel": 5212,
      "Ġplanet": 5213,
      "mod": 5214,
      "Ġcards": 5215,
      "Ġsuggested": 5216,
      "Ġdecide": 5217,
      "Ġadults": 5218,
      "Ġsand": 5219,
      "Ġban": 5220,
      "acking": 5221,
      "Ġseemed": 5222,
      "ĠSar": 5223,
      "ĠBoth": 5224,
      "Ġowners": 5225,
      "Last": 5226,
      "Ġcities": 5227,
      "Ġtrain": 5228,
      "icking": 5229,
      "ĠFace": 5230,
      "ffee": 5231,
      "Ġaffected": 5232,
      "Ġexperienced": 5233,
      "Ġbrief": 5234,
      "ossible": 5235,
      "ĠGermany": 5236,
      "Ġcapacity": 5237,
      "unday": 5238,
      "writ": 5239,
      "Ġgarden": 5240,
      "Ġaren": 5241,
      "Ġscore": 5242,
      "Ġorganizations": 5243,
      "erate": 5244,
      "Ġdrawing": 5245,
      "Ġsugar": 5246,
      "Ġwaste": 5247,
      "Ġanswers": 5248,
      "ĠYear": 5249,
      "Ġhelping": 5250,
      "omic": 5251,
      "Ġplus": 5252,
      "Ġexplained": 5253,
      "Ġloved": 5254,
      "Ġreaction": 5255,
      "Ġplays": 5256,
      "mathcal": 5257,
      "imensional": 5258,
      "ogen": 5259,
      "ĠWilliam": 5260,
      "Ġreferred": 5261,
      "Ġmoves": 5262,
      "Us": 5263,
      "ĠWater": 5264,
      "Ġbecoming": 5265,
      "Ġgrav": 5266,
      "ĠAddition": 5267,
      "64": 5268,
      "Ġgrant": 5269,
      "Ġestimated": 5270,
      "mas": 5271,
      "Ġexpans": 5272,
      "Ġcolon": 5273,
      "Ġbehavi": 5274,
      "Ġwhom": 5275,
      "Ġconstraint": 5276,
      "Ġemphas": 5277,
      "Ġhence": 5278,
      "Ġlegis": 5279,
      "ĠEducation": 5280,
      "Ġcop": 5281,
      "!\"": 5282,
      "*(": 5283,
      "App": 5284,
      "iller": 5285,
      "Ġsuggests": 5286,
      "itc": 5287,
      "Ġmostly": 5288,
      "Ġminor": 5289,
      "Ġremove": 5290,
      "Ġpositions": 5291,
      "Ġpuzz": 5292,
      "aper": 5293,
      "Ġlots": 5294,
      "ĠPublic": 5295,
      "Ġadvice": 5296,
      "related": 5297,
      "ror": 5298,
      "Ġbattle": 5299,
      "ĠAD": 5300,
      "Ġgenerated": 5301,
      "opping": 5302,
      "Ġforeign": 5303,
      "what": 5304,
      "gery": 5305,
      "ston": 5306,
      "ĠDi": 5307,
      "Ġoutcome": 5308,
      "Ġspend": 5309,
      "ĠMary": 5310,
      "Ġlayer": 5311,
      "Ġinsights": 5312,
      "Ġknowing": 5313,
      "Ġvoice": 5314,
      "ĠST": 5315,
      "Ġleader": 5316,
      "ĠMac": 5317,
      "Ġvolunt": 5318,
      "Ġ@": 5319,
      "Ġstands": 5320,
      "Ġtack": 5321,
      "Ġtruly": 5322,
      "Ġtriang": 5323,
      "ĠBC": 5324,
      "Ġ2020": 5325,
      "ĠWestern": 5326,
      "ĠFree": 5327,
      "ometimes": 5328,
      "aturday": 5329,
      "Ġpurchase": 5330,
      "ĠBer": 5331,
      "Ġ31": 5332,
      "Ġcommonly": 5333,
      "Ġdomin": 5334,
      "Ġphenomen": 5335,
      "ria": 5336,
      "Ġchann": 5337,
      "Ġdrugs": 5338,
      "tra": 5339,
      ")]": 5340,
      "Step": 5341,
      "ĠMoreover": 5342,
      "95": 5343,
      "usiness": 5344,
      "Ġradius": 5345,
      "orous": 5346,
      "ĠCam": 5347,
      "rightarrow": 5348,
      "isher": 5349,
      "Ġefficiency": 5350,
      "mes": 5351,
      "Ġjoint": 5352,
      "Ġeducational": 5353,
      "ophy": 5354,
      "$:": 5355,
      "Ġ70": 5356,
      "ache": 5357,
      "Ġtrip": 5358,
      "Ġselected": 5359,
      "Ġpp": 5360,
      "ixt": 5361,
      "Ġpure": 5362,
      "Ġtrial": 5363,
      "Ġmetal": 5364,
      "Ġeating": 5365,
      "ĠGold": 5366,
      "ĠUN": 5367,
      "ĠLife": 5368,
      "Ġdisp": 5369,
      "rey": 5370,
      "ĠMet": 5371,
      "Ġsynt": 5372,
      "orial": 5373,
      "ĠPhys": 5374,
      "fficients": 5375,
      "Ġhorizont": 5376,
      "Ġscript": 5377,
      "Ġgod": 5378,
      "Ġprocessing": 5379,
      "ĠHall": 5380,
      "Ġnoted": 5381,
      "Ġappoint": 5382,
      "Ġ2019": 5383,
      "ĠProt": 5384,
      "Ġopening": 5385,
      "Ġclaims": 5386,
      "Ġship": 5387,
      "Ġdiam": 5388,
      "ups": 5389,
      "orrow": 5390,
      "Ġwel": 5391,
      "Ġvert": 5392,
      "Americ": 5393,
      "omorph": 5394,
      "ĠAnn": 5395,
      "Ġalgebraic": 5396,
      "ses": 5397,
      "Ġdistrict": 5398,
      "Ġjobs": 5399,
      "MS": 5400,
      "ĠLou": 5401,
      "unk": 5402,
      "âĢĿ,": 5403,
      "Ġprofession": 5404,
      "Ġnav": 5405,
      "Ġasking": 5406,
      "ado": 5407,
      "ĠâĢ¢": 5408,
      "Ġphotos": 5409,
      "Ġsexual": 5410,
      "ĠJapanese": 5411,
      "ga": 5412,
      "eria": 5413,
      "Ġfol": 5414,
      "Ġwhenever": 5415,
      "ĠPlan": 5416,
      "Ġannounced": 5417,
      "Ġballs": 5418,
      "Ġtrib": 5419,
      "Ġstated": 5420,
      "ho": 5421,
      "ĠMil": 5422,
      "Ġrational": 5423,
      "Ġmobile": 5424,
      "Ġchallenging": 5425,
      "ĠAcade": 5426,
      "Ġabsor": 5427,
      "85": 5428,
      "Ġdie": 5429,
      "Ġhyper": 5430,
      "bar": 5431,
      "lies": 5432,
      "Ġstars": 5433,
      "\")": 5434,
      "rition": 5435,
      "Ġhomes": 5436,
      "Ġmagical": 5437,
      "isation": 5438,
      "ĠPlease": 5439,
      "Ġapparent": 5440,
      "Ġvision": 5441,
      "itt": 5442,
      "ĠSocial": 5443,
      "ĠFind": 5444,
      "Ġinner": 5445,
      "Ġfreedom": 5446,
      "ĠTexas": 5447,
      "care": 5448,
      "yr": 5449,
      "Ġahead": 5450,
      "ĠHen": 5451,
      "77": 5452,
      "Ġgirls": 5453,
      "Ġsequences": 5454,
      "Ġmagic": 5455,
      "Ġparameters": 5456,
      "Ġexcellent": 5457,
      "Ġstret": 5458,
      "cious": 5459,
      "pan": 5460,
      "Ġselection": 5461,
      "Ġviews": 5462,
      "66": 5463,
      "Ġsurvey": 5464,
      "Ġbright": 5465,
      "Ġstorage": 5466,
      "ĠArab": 5467,
      "aj": 5468,
      "Ġrul": 5469,
      "Ġ2018": 5470,
      "EO": 5471,
      "Ġhearing": 5472,
      "Ġkilled": 5473,
      "Ġdiseases": 5474,
      "otal": 5475,
      "Ġ\\*": 5476,
      "hips": 5477,
      "Ġcustomer": 5478,
      "Ġjoin": 5479,
      "ĠRemember": 5480,
      "Ġacademic": 5481,
      "ĠTime": 5482,
      "Ġinstr": 5483,
      "Ġevolution": 5484,
      "Ġadvent": 5485,
      "Ġinfinite": 5486,
      "ĠTur": 5487,
      "Ġwindow": 5488,
      "ĠThomas": 5489,
      "Ġinsurance": 5490,
      "oma": 5491,
      "irt": 5492,
      "Ġconcerns": 5493,
      "cript": 5494,
      "ĠMicro": 5495,
      "ĠMem": 5496,
      "ĠIsland": 5497,
      "Ġfemale": 5498,
      "ĠDiv": 5499,
      "nel": 5500,
      "Ġconcerning": 5501,
      "Ġgreatest": 5502,
      "Ġspeaking": 5503,
      "$)": 5504,
      "Ġchoices": 5505,
      "'.": 5506,
      "Ġing": 5507,
      "Ġlik": 5508,
      "Ġbigger": 5509,
      "Ġprepared": 5510,
      "iat": 5511,
      "ĠPower": 5512,
      "Ġcombinations": 5513,
      "Ġdetailed": 5514,
      "Ġsamples": 5515,
      "gency": 5516,
      "ags": 5517,
      "Ġoverl": 5518,
      "ln": 5519,
      "ĠCommission": 5520,
      "free": 5521,
      "Ġtow": 5522,
      "ultane": 5523,
      "Ġcontinues": 5524,
      "ashion": 5525,
      "Ġtherapy": 5526,
      "uous": 5527,
      "Ġprocedure": 5528,
      "ĨĴ": 5529,
      "Ġriver": 5530,
      "upp": 5531,
      "ota": 5532,
      "Ġdiss": 5533,
      "kin": 5534,
      "ĠTHE": 5535,
      "under": 5536,
      "ception": 5537,
      "02": 5538,
      "ĠMass": 5539,
      "ĠFore": 5540,
      "Ġperm": 5541,
      "Ġrespective": 5542,
      "herent": 5543,
      "Ġindu": 5544,
      "Ġresist": 5545,
      "Ġ45": 5546,
      "Ġensuring": 5547,
      "ĠMichael": 5548,
      "dfrac": 5549,
      "Ġpictures": 5550,
      "Ġcarefully": 5551,
      "state": 5552,
      "Ġgirl": 5553,
      "Ġparticles": 5554,
      "Ġrealized": 5555,
      "ĠStreet": 5556,
      "Ġestimate": 5557,
      "Ġcalls": 5558,
      "Ġneighbor": 5559,
      "ĠCD": 5560,
      "Ġdiscussed": 5561,
      "ĠFranc": 5562,
      "poses": 5563,
      "Ġfascinating": 5564,
      "rons": 5565,
      "Ġmouth": 5566,
      "Ġmovie": 5567,
      "venue": 5568,
      "ographic": 5569,
      "Title": 5570,
      "nergy": 5571,
      "olved": 5572,
      "Ġran": 5573,
      "Ġimplic": 5574,
      "Ġarm": 5575,
      "Ġteach": 5576,
      "Ġboxes": 5577,
      "ĠDet": 5578,
      "ĠRob": 5579,
      "Ġcomputing": 5580,
      "42": 5581,
      "position": 5582,
      "gl": 5583,
      "aming": 5584,
      "ĠOpen": 5585,
      "enses": 5586,
      "Ġformal": 5587,
      "Ġconsistent": 5588,
      "no": 5589,
      "ugg": 5590,
      "xic": 5591,
      "asy": 5592,
      "Ġprepar": 5593,
      "Ġtechnical": 5594,
      "Ġ;": 5595,
      "Ġsuitable": 5596,
      "ĠReview": 5597,
      "Ġmeasured": 5598,
      "Ġcomments": 5599,
      "Ġneither": 5600,
      "Ġappeared": 5601,
      "Ġarray": 5602,
      "Ġhelpful": 5603,
      "Ġcharacteristics": 5604,
      "Ġintellig": 5605,
      "ĠMount": 5606,
      "()": 5607,
      "*}": 5608,
      "Ġnone": 5609,
      "Ġdeliver": 5610,
      "Ġfindings": 5611,
      "Ġdefinitions": 5612,
      "Ġdecades": 5613,
      "Ġarticles": 5614,
      "ĠSal": 5615,
      "Ġauthors": 5616,
      "Ġwidely": 5617,
      "Ġstrict": 5618,
      "Ġattrib": 5619,
      "inner": 5620,
      "Ġliqu": 5621,
      "Ġliber": 5622,
      "oughly": 5623,
      "ĠImp": 5624,
      "ht": 5625,
      "ĠBook": 5626,
      "Ġswitch": 5627,
      "Ġcausing": 5628,
      "ĠInformation": 5629,
      "Ġgenerate": 5630,
      "ĠAny": 5631,
      "Ġinverse": 5632,
      "Ġliterature": 5633,
      "Ġpal": 5634,
      "Ġhunt": 5635,
      "ĠIN": 5636,
      "Ġpregn": 5637,
      "estion": 5638,
      "ĠMod": 5639,
      "Ġsuppose": 5640,
      "ĠVirgin": 5641,
      "ulf": 5642,
      "Ġidentical": 5643,
      "big": 5644,
      "mu": 5645,
      "Ġcert": 5646,
      "Ġcategory": 5647,
      "ĠDevelopment": 5648,
      "ĠCompany": 5649,
      "Ġisland": 5650,
      "ĠNon": 5651,
      "ĠSecond": 5652,
      "ĠRussian": 5653,
      "Ġcoefficients": 5654,
      "Ġaward": 5655,
      "Ġalcohol": 5656,
      "ĠMedic": 5657,
      "Ġinequality": 5658,
      "Ġwarn": 5659,
      "ructure": 5660,
      "Ġmel": 5661,
      "Ġthick": 5662,
      "Ġquarter": 5663,
      "ĠUnderstanding": 5664,
      "Ġprinciple": 5665,
      "DE": 5666,
      "Ġtaught": 5667,
      "ĠFriday": 5668,
      "Ġremoved": 5669,
      "uing": 5670,
      "het": 5671,
      "Ġterrit": 5672,
      "76": 5673,
      "ĠHome": 5674,
      "Ġwaves": 5675,
      "Ġfell": 5676,
      "matic": 5677,
      "Ġrepeated": 5678,
      "Ar": 5679,
      "vention": 5680,
      "Ġflex": 5681,
      "ĠSunday": 5682,
      "Ġpros": 5683,
      "Ġ2003": 5684,
      "Ġruns": 5685,
      "Ġremained": 5686,
      "Ġsnow": 5687,
      "istical": 5688,
      "41": 5689,
      "AA": 5690,
      "Ġtechnologies": 5691,
      "den": 5692,
      "hus": 5693,
      "ini": 5694,
      "IG": 5695,
      "ey": 5696,
      "Ġspeech": 5697,
      "Ġcoffee": 5698,
      "Ġtraffic": 5699,
      "Ġcarried": 5700,
      "leq": 5701,
      "Ġclar": 5702,
      "Ġunlike": 5703,
      "ĠExp": 5704,
      "Ġbirds": 5705,
      "08": 5706,
      "mm": 5707,
      "ologist": 5708,
      "Ġcorpor": 5709,
      "Ġclim": 5710,
      "Ġbusinesses": 5711,
      "Ġconvention": 5712,
      "ĠFacebook": 5713,
      "Ġcro": 5714,
      "ĠMax": 5715,
      "Ġvictim": 5716,
      "Ġfrequently": 5717,
      "Pl": 5718,
      "Ġuniform": 5719,
      "Ġproperly": 5720,
      "Ġsac": 5721,
      "Ġwhatever": 5722,
      "riage": 5723,
      "ĠFin": 5724,
      "ĠDan": 5725,
      "ĠRev": 5726,
      "Ġcatch": 5727,
      "Ġclust": 5728,
      "Ġdx": 5729,
      "Ġthanks": 5730,
      "ĠAsia": 5731,
      "itness": 5732,
      "Ġwouldn": 5733,
      "Ġhandle": 5734,
      "Ġneighb": 5735,
      "Ġhus": 5736,
      "roid": 5737,
      "Ġtrick": 5738,
      "ĠConf": 5739,
      "See": 5740,
      "icious": 5741,
      "Ġseeing": 5742,
      "Ġmanaged": 5743,
      "Ġsupported": 5744,
      "Ġnuclear": 5745,
      "Ġcomplexity": 5746,
      "Ġcompare": 5747,
      "Ġcorner": 5748,
      "Ġamounts": 5749,
      "Ġdrop": 5750,
      "from": 5751,
      "axis": 5752,
      "Ġadvance": 5753,
      "Ġmissing": 5754,
      "lig": 5755,
      "Ġerrors": 5756,
      "Ġfailure": 5757,
      "but": 5758,
      "Ġaccompl": 5759,
      "asks": 5760,
      "ĠJer": 5761,
      "ĠProject": 5762,
      "ona": 5763,
      "ĠImagine": 5764,
      "Ġnecessarily": 5765,
      "how": 5766,
      "win": 5767,
      "uls": 5768,
      "ĠIslam": 5769,
      "ĠJewish": 5770,
      ".$": 5771,
      "Ġcreation": 5772,
      "Ġdiverse": 5773,
      "Ġbow": 5774,
      "Ġdaughter": 5775,
      "Ġteams": 5776,
      "Ġmale": 5777,
      "ifts": 5778,
      "using": 5779,
      "istan": 5780,
      "othing": 5781,
      "ĠFlorida": 5782,
      "Cont": 5783,
      "dimensional": 5784,
      "Ġslope": 5785,
      "Ġsummary": 5786,
      "Ġgone": 5787,
      "ĠTom": 5788,
      "ĠLord": 5789,
      "Ġunknown": 5790,
      "Ġvertical": 5791,
      "ivery": 5792,
      "Ġdetermining": 5793,
      "Ġimproved": 5794,
      "Ġfill": 5795,
      "Ġinjury": 5796,
      "06": 5797,
      "ĠIr": 5798,
      "Finally": 5799,
      "ework": 5800,
      "Ġsimultane": 5801,
      "Ġdivis": 5802,
      "Ġsubsequ": 5803,
      "According": 5804,
      "\\\\": 5805,
      "Ġingred": 5806,
      "Ã¡": 5807,
      "Ġentirely": 5808,
      "Ġintended": 5809,
      "ĠHappy": 5810,
      "Ġdial": 5811,
      "ĠTim": 5812,
      "Ġtro": 5813,
      "ĠFinally": 5814,
      "ĠGood": 5815,
      "Ġstick": 5816,
      "abil": 5817,
      "ĠObama": 5818,
      "stein": 5819,
      "ycl": 5820,
      "TS": 5821,
      "Ġpossibly": 5822,
      "olars": 5823,
      "Ġsyn": 5824,
      "Ġdelve": 5825,
      "Ġobserve": 5826,
      "Ġsurrounding": 5827,
      "tion": 5828,
      "Ġbudget": 5829,
      "Ġseek": 5830,
      "Ġhidden": 5831,
      "ether": 5832,
      "athy": 5833,
      "Ġtransition": 5834,
      "rated": 5835,
      "Ġbodies": 5836,
      "Ġexposure": 5837,
      "Ġli": 5838,
      "ĠPers": 5839,
      "Ġcontem": 5840,
      "ĠRobert": 5841,
      "itting": 5842,
      "ĠMag": 5843,
      "Ġgenetic": 5844,
      "Ġdifferential": 5845,
      "ĠOrgan": 5846,
      "arp": 5847,
      "uded": 5848,
      "ĠStand": 5849,
      "Ġpurposes": 5850,
      "Ġwhereas": 5851,
      "ĠSet": 5852,
      "Ġempt": 5853,
      "print": 5854,
      "Ġends": 5855,
      "Ġunless": 5856,
      "ĠOffice": 5857,
      "ĠDemoc": 5858,
      "Ġoffering": 5859,
      "ĠCentral": 5860,
      "Ġdestroy": 5861,
      "Ġhypothes": 5862,
      "She": 5863,
      "09": 5864,
      "OL": 5865,
      "Ġcas": 5866,
      "Ġnoticed": 5867,
      "Ġfif": 5868,
      "Ġdenomin": 5869,
      "ĠTheorem": 5870,
      "gs": 5871,
      "rams": 5872,
      "Ġconfir": 5873,
      "Ġlessons": 5874,
      "Ġpark": 5875,
      "Ġdivers": 5876,
      "Ġkinds": 5877,
      "/(": 5878,
      "Ġmanif": 5879,
      "alled": 5880,
      "wo": 5881,
      "ya": 5882,
      "ĠLike": 5883,
      "Ġsports": 5884,
      "uesday": 5885,
      "example": 5886,
      "Ġpolicies": 5887,
      "Ġhospital": 5888,
      "Ġmanufacture": 5889,
      "Ġtit": 5890,
      "Ġentry": 5891,
      "03": 5892,
      "OP": 5893,
      "ĠAtlant": 5894,
      "ias": 5895,
      "Ã¶": 5896,
      "orter": 5897,
      "enly": 5898,
      "ĠOh": 5899,
      "Ġitem": 5900,
      ")+": 5901,
      "Ġaid": 5902,
      "ĠPC": 5903,
      "Ġfinished": 5904,
      "ĠElect": 5905,
      "Ġexplicit": 5906,
      "Ġinterests": 5907,
      "Ġtreated": 5908,
      "500": 5909,
      "ml": 5910,
      "ĠBrown": 5911,
      "Ġflo": 5912,
      "Ġpractical": 5913,
      "Ġ2002": 5914,
      "Qu": 5915,
      "othe": 5916,
      "07": 5917,
      "Ġexcess": 5918,
      "Ġindustrial": 5919,
      "ĠSmith": 5920,
      "ĠFam": 5921,
      "Ġmarbles": 5922,
      "Ġcoordinates": 5923,
      "Ġcup": 5924,
      "Ġresource": 5925,
      "Ġmultiplying": 5926,
      "89": 5927,
      "04": 5928,
      "soft": 5929,
      "Ġiniti": 5930,
      "Ġmultiply": 5931,
      "going": 5932,
      "More": 5933,
      "Ġdrawn": 5934,
      "ĠApple": 5935,
      "net": 5936,
      "Ġprogramming": 5937,
      "Ġmotor": 5938,
      "ĠGovernment": 5939,
      "Have": 5940,
      "Ġagreed": 5941,
      "Ġdedicated": 5942,
      "ait": 5943,
      "Ġbatter": 5944,
      "Ġimpossible": 5945,
      "alian": 5946,
      "ĠFe": 5947,
      "mo": 5948,
      "rd": 5949,
      "azine": 5950,
      "IP": 5951,
      "Why": 5952,
      "Ġdocuments": 5953,
      "Ġcraft": 5954,
      "Ġgun": 5955,
      "86": 5956,
      "oles": 5957,
      "antly": 5958,
      "bal": 5959,
      "ĠMonday": 5960,
      "isp": 5961,
      "ĠLeg": 5962,
      "Ġclients": 5963,
      "Ġinfection": 5964,
      "rep": 5965,
      "Ġhaven": 5966,
      "Se": 5967,
      "tes": 5968,
      "Ġchief": 5969,
      "{(": 5970,
      "Ġmanner": 5971,
      "Not": 5972,
      "ĠEngine": 5973,
      "Ġlibrary": 5974,
      "Ġmagnitude": 5975,
      "Ġdividing": 5976,
      "Ġcere": 5977,
      "Ġlatter": 5978,
      "ĠBig": 5979,
      "Ġfocused": 5980,
      "icial": 5981,
      "ĠHave": 5982,
      "Ġgrad": 5983,
      "rieved": 5984,
      "Ġtail": 5985,
      "Ġbuildings": 5986,
      "Ġfourth": 5987,
      "Do": 5988,
      "eer": 5989,
      "essel": 5990,
      "Ġsubset": 5991,
      "ĠMuseum": 5992,
      "Ġchart": 5993,
      "Ġperspective": 5994,
      "Ġpip": 5995,
      "ĠSaturday": 5996,
      "Ġsecure": 5997,
      "Ġmedium": 5998,
      "Ġdescribes": 5999,
      "Ġlose": 6000,
      "**:": 6001,
      "Ġfraction": 6002,
      "olve": 6003,
      "Ġsudd": 6004,
      "Ġpartial": 6005,
      "Ġdimensions": 6006,
      "inom": 6007,
      "Ġunex": 6008,
      "iverse": 6009,
      "Ġprecisely": 6010,
      "Once": 6011,
      "ĠPo": 6012,
      "Ġcolle": 6013,
      "ĠLo": 6014,
      "Ġ2001": 6015,
      "hat": 6016,
      "Ġyouth": 6017,
      "ĠDNA": 6018,
      "Ġgeometry": 6019,
      "Ġpackage": 6020,
      "Ġultimately": 6021,
      "Ind": 6022,
      "top": 6023,
      "Ġjump": 6024,
      "ĠManagement": 6025,
      "Ġcamera": 6026,
      "ĠId": 6027,
      "Ġju": 6028,
      "tex": 6029,
      "ĠCath": 6030,
      "Ġofficials": 6031,
      "ĠHence": 6032,
      "ĠThrough": 6033,
      "Ġincred": 6034,
      "Ġopened": 6035,
      "Ġcircuit": 6036,
      "Ġocean": 6037,
      "ĠMuslim": 6038,
      "Ġnative": 6039,
      "enth": 6040,
      "Ġobservations": 6041,
      "Ġsubstant": 6042,
      "Ġforget": 6043,
      "Ġelectron": 6044,
      "ĠSl": 6045,
      "ums": 6046,
      "Ġinfect": 6047,
      "Ġcreative": 6048,
      "Ġbegins": 6049,
      "ĠWed": 6050,
      "ĠWil": 6051,
      "ĠOF": 6052,
      "Ġfocusing": 6053,
      "ka": 6054,
      "Ġshift": 6055,
      "ĠPlay": 6056,
      "then": 6057,
      "Ġexperts": 6058,
      "Ġmarketing": 6059,
      "ĠÂ£": 6060,
      "Ġsettle": 6061,
      "Ġsalt": 6062,
      "Ġnine": 6063,
      "Ġvote": 6064,
      "orking": 6065,
      "anes": 6066,
      "ĠBas": 6067,
      "Ġcong": 6068,
      "Ġscene": 6069,
      "nam": 6070,
      "Ġtypical": 6071,
      "Ġoperating": 6072,
      "ĠQue": 6073,
      "fortunately": 6074,
      "Ġrank": 6075,
      "Ġuncertain": 6076,
      "ĠWindows": 6077,
      "ĠAdd": 6078,
      "Ġfoundation": 6079,
      "Ġmedicine": 6080,
      "ront": 6081,
      "Ġwww": 6082,
      "Ġyellow": 6083,
      "ittle": 6084,
      "ĠData": 6085,
      "âĤĤ": 6086,
      "Ġflowers": 6087,
      "Ġanalyze": 6088,
      "dt": 6089,
      "ĠCarol": 6090,
      "Ġwire": 6091,
      "ĠDire": 6092,
      "Ġacts": 6093,
      "Ġresponsibility": 6094,
      "Ġstudying": 6095,
      "Ġaxis": 6096,
      "}_": 6097,
      "ĠSimilarly": 6098,
      "}}\\": 6099,
      "ÃŃ": 6100,
      "Ġsurf": 6101,
      "ket": 6102,
      "Ġprimarily": 6103,
      "htt": 6104,
      "kins": 6105,
      "Ġholding": 6106,
      "stood": 6107,
      "Ġvacc": 6108,
      "Ġmatters": 6109,
      "eries": 6110,
      "last": 6111,
      "Ġseconds": 6112,
      "Ġbroken": 6113,
      "ithmetic": 6114,
      "Del": 6115,
      "Sc": 6116,
      "Ġmilk": 6117,
      "Ġwealth": 6118,
      "Ġtransformation": 6119,
      "Ġportion": 6120,
      "Ġpassion": 6121,
      "Ġtemperatures": 6122,
      "\\)": 6123,
      "Ġrent": 6124,
      "ĠEnergy": 6125,
      "Ġlisted": 6126,
      "Ġinternet": 6127,
      "Ġfacilit": 6128,
      "87": 6129,
      "ĠRad": 6130,
      "Ġourselves": 6131,
      "Ġagg": 6132,
      "Ġdiabetes": 6133,
      "Ġdescription": 6134,
      "Ġindicates": 6135,
      "Ġwaiting": 6136,
      "elly": 6137,
      "Ġpossibility": 6138,
      "ancer": 6139,
      "Ġcapable": 6140,
      "ĠGa": 6141,
      "racy": 6142,
      "Ġvehicle": 6143,
      "Ġtangent": 6144,
      "ĠHuman": 6145,
      "rome": 6146,
      "onomet": 6147,
      "Ġspecified": 6148,
      "}+": 6149,
      "Ġserver": 6150,
      "ĠAtt": 6151,
      "Ġreducing": 6152,
      "Ġregardless": 6153,
      "Ġrub": 6154,
      "ĠEmp": 6155,
      "Ġspin": 6156,
      "Ġfix": 6157,
      "ĠGal": 6158,
      "ferent": 6159,
      "Ġlaun": 6160,
      "Ġexternal": 6161,
      "Ġdriving": 6162,
      "Ġmig": 6163,
      "arsh": 6164,
      "Ġsegment": 6165,
      "Ġpun": 6166,
      "ogue": 6167,
      "phone": 6168,
      "Ġthoughts": 6169,
      "Ġ%": 6170,
      "Ġiron": 6171,
      "Ġparties": 6172,
      "alysis": 6173,
      "astern": 6174,
      "ĠPac": 6175,
      "Ġ$|": 6176,
      "Ġputting": 6177,
      "ursday": 6178,
      "ĠBoard": 6179,
      "Ġfacts": 6180,
      "aturally": 6181,
      "Ġconj": 6182,
      "Ġpotentially": 6183,
      "Ġsweet": 6184,
      "ĠProfess": 6185,
      "CH": 6186,
      "Ġmeasurements": 6187,
      "Ġrenew": 6188,
      "ĠOld": 6189,
      "Ġmaintaining": 6190,
      "Ġpaint": 6191,
      "Ġarrived": 6192,
      "Ġscenario": 6193,
      "ĠJose": 6194,
      "Ġsquares": 6195,
      "Ġobjective": 6196,
      "ĠSuper": 6197,
      "Ġconsumption": 6198,
      "EL": 6199,
      "df": 6200,
      "rich": 6201,
      "ygen": 6202,
      "Ġforced": 6203,
      "Ġgene": 6204,
      "ĠEnvironment": 6205,
      "Ġexpansion": 6206,
      "Ġbinary": 6207,
      "Ġgather": 6208,
      "amm": 6209,
      "ĠFood": 6210,
      "ĠLast": 6211,
      "Ġintroduce": 6212,
      "}=\\": 6213,
      "Ġcritic": 6214,
      "Ġhttps": 6215,
      "Ġconducted": 6216,
      "ĠNor": 6217,
      "Ġlie": 6218,
      "Ġbiggest": 6219,
      "iveness": 6220,
      "Ġvs": 6221,
      "Ġagreement": 6222,
      "pet": 6223,
      "Ġtick": 6224,
      "Ġafford": 6225,
      "ena": 6226,
      "Ġaccepted": 6227,
      "ĠConsider": 6228,
      "ĠGet": 6229,
      "ĠMake": 6230,
      "ĠWhe": 6231,
      "Ġprison": 6232,
      "Ġflav": 6233,
      "Ġlocations": 6234,
      "mittee": 6235,
      "Ġcontribute": 6236,
      "Ġaudience": 6237,
      "Ġmur": 6238,
      "sey": 6239,
      "ĠDisc": 6240,
      "Ġmerely": 6241,
      "ĠInf": 6242,
      "Ġencourage": 6243,
      "Ġcircumst": 6244,
      "$-": 6245,
      "Ġsector": 6246,
      "Ġexplanation": 6247,
      "Ġtips": 6248,
      "encing": 6249,
      "Ġforth": 6250,
      "Ġsigned": 6251,
      "ĠAnother": 6252,
      "Ġrecorded": 6253,
      "Ġfootball": 6254,
      "Ġvac": 6255,
      "ĠJo": 6256,
      "Ġdiscipl": 6257,
      "ircraft": 6258,
      "Ġatmosphere": 6259,
      "Ġreturns": 6260,
      "ĠNext": 6261,
      "ĠArmy": 6262,
      "Ġcompetition": 6263,
      "Ġdatab": 6264,
      "ĠAcademy": 6265,
      "Ġboy": 6266,
      "Ġthr": 6267,
      "Ġvan": 6268,
      "Ġassemb": 6269,
      "icular": 6270,
      "oding": 6271,
      "roduction": 6272,
      "Ġpercentage": 6273,
      "Ġbeauty": 6274,
      "Ġlinked": 6275,
      "ĠMult": 6276,
      "Ġcompr": 6277,
      "IM": 6278,
      "Ġconfidence": 6279,
      "Ġfigures": 6280,
      "Ġappeal": 6281,
      "ĠAustralian": 6282,
      "Ġ##": 6283,
      "ĠMath": 6284,
      "nesday": 6285,
      "ca": 6286,
      "Ġsoci": 6287,
      "Ġmixed": 6288,
      "struct": 6289,
      "values": 6290,
      "ĠCanadian": 6291,
      "Ġexponential": 6292,
      "^(": 6293,
      "Ġwear": 6294,
      "Ġordered": 6295,
      "world": 6296,
      "Ġfort": 6297,
      "Ġ36": 6298,
      "Ġrecommended": 6299,
      ",$": 6300,
      "Ġexpensive": 6301,
      "Ġstanding": 6302,
      "ĠFoundation": 6303,
      "Ġempty": 6304,
      "79": 6305,
      "Ġcash": 6306,
      "icago": 6307,
      "Ġshel": 6308,
      "American": 6309,
      ".|": 6310,
      "Tr": 6311,
      "Ġsurgery": 6312,
      "Ġbreaking": 6313,
      "Ġtun": 6314,
      "Ġindicate": 6315,
      "Ġtheore": 6316,
      "oto": 6317,
      "ĠEnt": 6318,
      "ĠStep": 6319,
      "Ġended": 6320,
      "Ġelectricity": 6321,
      "Ġbreast": 6322,
      "Ġlandsc": 6323,
      "Ġillness": 6324,
      "Res": 6325,
      "ĠKore": 6326,
      "ĠCap": 6327,
      "Ġmaps": 6328,
      "Ġdiscovery": 6329,
      "Ġmonit": 6330,
      "Another": 6331,
      "uty": 6332,
      "Ġexchange": 6333,
      "Ġstatements": 6334,
      "Ġurban": 6335,
      "Ġviolence": 6336,
      "Ġshoot": 6337,
      "Ġpassing": 6338,
      "Post": 6339,
      "van": 6340,
      "Ġcrow": 6341,
      "ĠSpanish": 6342,
      "Ġsuccessfully": 6343,
      "ĠLouis": 6344,
      "edy": 6345,
      "road": 6346,
      "ĠAC": 6347,
      "Ġjoined": 6348,
      "ĠTechnology": 6349,
      ")-": 6350,
      "ĠTop": 6351,
      "Ġpool": 6352,
      "Ġconnecting": 6353,
      "Ġfailed": 6354,
      "Ġwaters": 6355,
      "level": 6356,
      "Ġconversation": 6357,
      "ita": 6358,
      "Ġfinish": 6359,
      "Ġhorizontal": 6360,
      "Ġtall": 6361,
      "ĠParis": 6362,
      "Ġclinical": 6363,
      "ĠEr": 6364,
      "Ġrestrict": 6365,
      "ĠAP": 6366,
      "Ġvast": 6367,
      "osh": 6368,
      "Ġheads": 6369,
      "ĠCamp": 6370,
      "bing": 6371,
      "olving": 6372,
      "ĠStat": 6373,
      "Ġdefinitely": 6374,
      "word": 6375,
      "Man": 6376,
      "Ġreject": 6377,
      "ĠStar": 6378,
      "coming": 6379,
      "Ġsimplify": 6380,
      "ĠTor": 6381,
      "ĠStr": 6382,
      "Ġlaunch": 6383,
      "ĠMont": 6384,
      "Ġarmy": 6385,
      "erves": 6386,
      "Ġbrings": 6387,
      "Ġparticipants": 6388,
      "aser": 6389,
      "ĠLand": 6390,
      "Ġroof": 6391,
      "obe": 6392,
      "Ġdefe": 6393,
      "Ġtherm": 6394,
      "Ġeast": 6395,
      "Ġcounting": 6396,
      "Ġserves": 6397,
      "Ġconcerned": 6398,
      "Ġbacteria": 6399,
      "Ġmotiv": 6400,
      "Ġquantity": 6401,
      "ĠCivil": 6402,
      "Ġpopulations": 6403,
      "Ġhusband": 6404,
      "Ġreduction": 6405,
      "spec": 6406,
      "Ġalgorithms": 6407,
      "Ġextended": 6408,
      "Ġoriginally": 6409,
      "Ġinstitutions": 6410,
      "Ġleadership": 6411,
      "ĠBusiness": 6412,
      "ĠPeter": 6413,
      "ĠGr": 6414,
      "ĠBritain": 6415,
      "ĠAND": 6416,
      "BA": 6417,
      "Ġinh": 6418,
      "Ġnorthern": 6419,
      "Ġgar": 6420,
      "Ġsizes": 6421,
      "Ġoccurred": 6422,
      "utation": 6423,
      "erving": 6424,
      "Ġincreasingly": 6425,
      "ĠJews": 6426,
      "ĠFrancis": 6427,
      "ĠVirginia": 6428,
      "Ġphoto": 6429,
      "Ġfalse": 6430,
      "Ġseemingly": 6431,
      "56": 6432,
      "Ġexceed": 6433,
      "ighter": 6434,
      "Ġcolumns": 6435,
      "Ġnoise": 6436,
      "Ġdepos": 6437,
      "Ġstatistics": 6438,
      "Ġauthority": 6439,
      "Ġrecognize": 6440,
      "ĠCharles": 6441,
      "Ġtissue": 6442,
      "FS": 6443,
      "Ġpartner": 6444,
      "Ġteeth": 6445,
      "Ġcompact": 6446,
      "tage": 6447,
      "ystem": 6448,
      "entions": 6449,
      "ĠLake": 6450,
      "ĠYes": 6451,
      "Ġevening": 6452,
      "Ġlargely": 6453,
      "Ġwalking": 6454,
      "Ġshut": 6455,
      "Ġwalls": 6456,
      "Ġsolely": 6457,
      "Ġweap": 6458,
      "ĠJul": 6459,
      "Ġmanager": 6460,
      "Ġstudied": 6461,
      "Ġoperator": 6462,
      "Ġparameter": 6463,
      "Ġexcited": 6464,
      "Ġflood": 6465,
      ".;": 6466,
      "Ġpray": 6467,
      "Ġvent": 6468,
      "akers": 6469,
      "Ġintervals": 6470,
      "ĠWork": 6471,
      "Ġpossibilities": 6472,
      "Ġchoosing": 6473,
      "Ġlisten": 6474,
      "itz": 6475,
      "ĠSpace": 6476,
      "Ġ500": 6477,
      "Ġdelivery": 6478,
      "ĠAdditionally": 6479,
      "Ġgenes": 6480,
      "flow": 6481,
      "ptions": 6482,
      "Ġfewer": 6483,
      "ĠColor": 6484,
      "Ġcandies": 6485,
      "^{\\": 6486,
      "ĠPoint": 6487,
      "Ġrestri": 6488,
      "Ġrestaur": 6489,
      "Ġdrink": 6490,
      "ĠDesign": 6491,
      "Ġopinion": 6492,
      "CD": 6493,
      "Ġmort": 6494,
      "acent": 6495,
      "Ġcomputers": 6496,
      "Ġcreates": 6497,
      "Ġpromote": 6498,
      "Ġthor": 6499,
      "Ġadvert": 6500,
      "Ġestimates": 6501,
      "zero": 6502,
      "ada": 6503,
      "ĠBre": 6504,
      "Ġconservation": 6505,
      "ĠComput": 6506,
      "ano": 6507,
      "Ġdogs": 6508,
      "Ġcart": 6509,
      "Ġped": 6510,
      "inder": 6511,
      "Ġdistingu": 6512,
      "ĠValley": 6513,
      "Ġraise": 6514,
      "Ġedges": 6515,
      "Ġdepth": 6516,
      "Ġcontained": 6517,
      "Ġconven": 6518,
      ".$$": 6519,
      "fl": 6520,
      "Ġthrow": 6521,
      "Ġ32": 6522,
      "Ġgrass": 6523,
      "Ġdemonstrate": 6524,
      "ĠAngel": 6525,
      "Ġcategories": 6526,
      "estival": 6527,
      "ython": 6528,
      "Ġmeat": 6529,
      "Ġperforming": 6530,
      "Ġmuscle": 6531,
      "Ġassessment": 6532,
      "Ġcalculation": 6533,
      "Ġappearance": 6534,
      "ĠFurthermore": 6535,
      "Sub": 6536,
      "gent": 6537,
      "roph": 6538,
      "Ġprem": 6539,
      "Ġcorresponds": 6540,
      "Ġneut": 6541,
      "Ġpersons": 6542,
      "Ġfab": 6543,
      "Ġfold": 6544,
      "Ġfunctional": 6545,
      "Ġorganized": 6546,
      "ĠOnly": 6547,
      "Although": 6548,
      "Ġfrag": 6549,
      "Ġresidents": 6550,
      "Ġhighlight": 6551,
      "Ġparticle": 6552,
      "Rec": 6553,
      "Ġenem": 6554,
      "Ġlogar": 6555,
      "ih": 6556,
      "ĠList": 6557,
      "Ġlesson": 6558,
      "ĠGrand": 6559,
      "atell": 6560,
      "ĠLu": 6561,
      "Ġsatisfying": 6562,
      "Ġsupposed": 6563,
      "ĠScott": 6564,
      "Ġessay": 6565,
      "Ġquantum": 6566,
      "Ġrevealed": 6567,
      "xiety": 6568,
      "IL": 6569,
      "[\\": 6570,
      "sen": 6571,
      "ocation": 6572,
      "59": 6573,
      "long": 6574,
      "ĠAS": 6575,
      "ogether": 6576,
      "Ġreaders": 6577,
      "Ġastron": 6578,
      "Ġfashion": 6579,
      "ĠMiddle": 6580,
      "ĠNov": 6581,
      "Ġcircles": 6582,
      "vin": 6583,
      "ethe": 6584,
      "rium": 6585,
      "Ġsubg": 6586,
      "Ġrecognized": 6587,
      "ĠBank": 6588,
      "Ġelectrical": 6589,
      "Ġ1990": 6590,
      "Ġfluid": 6591,
      "Ġaccuracy": 6592,
      "De": 6593,
      "zen": 6594,
      "ãģ": 6595,
      "Ġnarrow": 6596,
      "Ġdatas": 6597,
      "ien": 6598,
      "oster": 6599,
      "Ġframework": 6600,
      "Ġbeat": 6601,
      "Ġvertices": 6602,
      "pling": 6603,
      "Ġextract": 6604,
      "crib": 6605,
      "lers": 6606,
      "Ġdepression": 6607,
      "''": 6608,
      "Ġfert": 6609,
      "active": 6610,
      "rain": 6611,
      "Ġperman": 6612,
      "Ġdiscrim": 6613,
      "Ġrh": 6614,
      "Ġseeking": 6615,
      "Ġminute": 6616,
      "Ġartist": 6617,
      "Ġorders": 6618,
      "Ġunexpected": 6619,
      "Am": 6620,
      "Ġalle": 6621,
      "Ġsuc": 6622,
      "ĠFund": 6623,
      "Ġnumerical": 6624,
      "night": 6625,
      "Ġnetworks": 6626,
      "Ġderivatives": 6627,
      "Ġsubsequent": 6628,
      "Many": 6629,
      "hem": 6630,
      "ega": 6631,
      "Ġgrid": 6632,
      "ĠRetrieved": 6633,
      "ĠHenry": 6634,
      "Ġtum": 6635,
      "Ġtasks": 6636,
      "inf": 6637,
      "requ": 6638,
      "ĠTimes": 6639,
      "Ġorient": 6640,
      "Ġsky": 6641,
      "Ġfunds": 6642,
      "Most": 6643,
      "Ġenable": 6644,
      "Ġscal": 6645,
      "atively": 6646,
      "apping": 6647,
      "Ġrisks": 6648,
      "Ġadministration": 6649,
      "Ġvillage": 6650,
      "Ġapples": 6651,
      "Ġperfectly": 6652,
      "ĠServices": 6653,
      "Ġcoefficient": 6654,
      "Ġquadratic": 6655,
      "fit": 6656,
      "incl": 6657,
      "Ġske": 6658,
      "ĠLine": 6659,
      "Ġslowly": 6660,
      "Ġnavig": 6661,
      "eties": 6662,
      "quare": 6663,
      "Ġunderstood": 6664,
      "ifications": 6665,
      "ĠCommittee": 6666,
      "Ġboundary": 6667,
      "ĠModel": 6668,
      "itchen": 6669,
      "Ġscholars": 6670,
      "Ġequally": 6671,
      "ĠMexico": 6672,
      "ĠAT": 6673,
      "Ġattend": 6674,
      "Your": 6675,
      "Ġclient": 6676,
      "Ġframe": 6677,
      "Note": 6678,
      "osc": 6679,
      "Ġinches": 6680,
      "Ġelection": 6681,
      "ulating": 6682,
      "Ġfacilities": 6683,
      "gal": 6684,
      "Ġstim": 6685,
      "Ġkm": 6686,
      "Ġbranch": 6687,
      "Ġdemonstrated": 6688,
      "cers": 6689,
      "}^{\\": 6690,
      "Ġtru": 6691,
      "ila": 6692,
      "ĠAB": 6693,
      "Ġcombining": 6694,
      "frak": 6695,
      "mathfrak": 6696,
      "ching": 6697,
      "ĠMS": 6698,
      "Ġinvestigation": 6699,
      "Ġconstraints": 6700,
      "Ġnearby": 6701,
      "Ġstream": 6702,
      "Ġlogic": 6703,
      "69": 6704,
      "ĠWomen": 6705,
      "Ġdefense": 6706,
      "PR": 6707,
      "Ġvessel": 6708,
      "Ġflight": 6709,
      "ĠRussia": 6710,
      "Ġsouthern": 6711,
      "Ġreform": 6712,
      "ĠTuesday": 6713,
      "ĠWho": 6714,
      "Ġcollected": 6715,
      "Ġimplementation": 6716,
      "Ġgrew": 6717,
      "Ġextent": 6718,
      "Ġreligion": 6719,
      "OD": 6720,
      "Ġconfident": 6721,
      "ĠSuch": 6722,
      "ĠChildren": 6723,
      "Ġliquid": 6724,
      "Ġbutton": 6725,
      "Ġfunding": 6726,
      "Ġneighborhood": 6727,
      "Ġreaching": 6728,
      "Ġrows": 6729,
      "bur": 6730,
      "ĠJud": 6731,
      "Gen": 6732,
      "Ġelimin": 6733,
      "Ġextensive": 6734,
      "roduct": 6735,
      "Ġsymbols": 6736,
      "Ġarbitrary": 6737,
      "ĠBill": 6738,
      "Ġenables": 6739,
      "Ġpolar": 6740,
      "umer": 6741,
      "Ġstreet": 6742,
      "Ġplastic": 6743,
      "ĠChicago": 6744,
      "cknow": 6745,
      "Ġadvoc": 6746,
      "Ġwine": 6747,
      "Ġinject": 6748,
      "Ġfant": 6749,
      "Ġconference": 6750,
      "Ġabstract": 6751,
      "Ġpropos": 6752,
      "Ġhousehold": 6753,
      "Ġterr": 6754,
      "May": 6755,
      "ĠFederal": 6756,
      "ĠExt": 6757,
      "Ġalb": 6758,
      "ears": 6759,
      "Ġsignificance": 6760,
      "Ġmassive": 6761,
      "Ġuns": 6762,
      "UR": 6763,
      "Ġjustice": 6764,
      "ĠSarah": 6765,
      "ĠBet": 6766,
      "ĠRock": 6767,
      "Ġchapter": 6768,
      "Ġsusp": 6769,
      "ĠLibrary": 6770,
      "Ġshop": 6771,
      "Ġagency": 6772,
      "Ġclassroom": 6773,
      "ĠRichard": 6774,
      "68": 6775,
      "Ġfurn": 6776,
      "ĠSometimes": 6777,
      "ĠNav": 6778,
      "Ġassistance": 6779,
      "ĠâĪĴ": 6780,
      "Ġcircumstances": 6781,
      "Ġmal": 6782,
      "umes": 6783,
      "ĠPR": 6784,
      "dy": 6785,
      "Ġfib": 6786,
      "ounce": 6787,
      "ĠTem": 6788,
      "Ġcareful": 6789,
      "Ġessentially": 6790,
      "Ġwatching": 6791,
      "jan": 6792,
      "Ġrein": 6793,
      "Ġmarked": 6794,
      "Ġfle": 6795,
      "Ġluck": 6796,
      "illa": 6797,
      "Ġunion": 6798,
      "Ġdoubt": 6799,
      "ounded": 6800,
      "Ġlearners": 6801,
      "Ġcorrectly": 6802,
      "Ġcomparison": 6803,
      "Other": 6804,
      "ĠMethod": 6805,
      "Ġrelax": 6806,
      "Ġacting": 6807,
      "Ġeditor": 6808,
      "ĠMedical": 6809,
      "ĠStudents": 6810,
      "`,": 6811,
      "Ġfan": 6812,
      "Ġwriter": 6813,
      "ilib": 6814,
      "Ġstorm": 6815,
      "Ġusual": 6816,
      "Ġtaste": 6817,
      "Ġwilling": 6818,
      "Ġowner": 6819,
      "52": 6820,
      "Ġdirections": 6821,
      "Ġmountain": 6822,
      "IR": 6823,
      "Sim": 6824,
      "Ġfans": 6825,
      "Ġshad": 6826,
      "Ġarms": 6827,
      "Ġmainly": 6828,
      "ĠChristmas": 6829,
      "Ġprofessor": 6830,
      "ĠPacific": 6831,
      "Ġsale": 6832,
      "Ġnaturally": 6833,
      "ĠMain": 6834,
      "ĠGuide": 6835,
      "Ġ||": 6836,
      "Ġcloud": 6837,
      "just": 6838,
      "ĠLong": 6839,
      "Ġdefault": 6840,
      "theless": 6841,
      "Ġsmallest": 6842,
      "Ġspiritual": 6843,
      "67": 6844,
      "itis": 6845,
      "ĠSea": 6846,
      "OW": 6847,
      "ushed": 6848,
      "class": 6849,
      "ĠItalian": 6850,
      "Ġdistances": 6851,
      "Ġconfig": 6852,
      "Ġquantities": 6853,
      "Ġturning": 6854,
      "ĠUSA": 6855,
      "ĠTre": 6856,
      "Ġemergency": 6857,
      "Ġsimultaneously": 6858,
      "wing": 6859,
      "ifferent": 6860,
      "ellect": 6861,
      "Ġenab": 6862,
      "Ġarithmetic": 6863,
      "Ġpoet": 6864,
      "inent": 6865,
      "ĠRom": 6866,
      "aked": 6867,
      "ĠParty": 6868,
      "Ġfellow": 6869,
      "ĠPet": 6870,
      "Ġvital": 6871,
      "roud": 6872,
      "Ġkill": 6873,
      "ĠCa": 6874,
      "Ġcombine": 6875,
      "ship": 6876,
      "iration": 6877,
      "Ġhappening": 6878,
      "Ġhundreds": 6879,
      "ocking": 6880,
      "exp": 6881,
      "fall": 6882,
      "Ġdress": 6883,
      "vec": 6884,
      "utch": 6885,
      "ĠAcc": 6886,
      "Ġorganic": 6887,
      "Ġweekend": 6888,
      ")$$": 6889,
      "âĦ": 6890,
      "ĠIP": 6891,
      "ĠBudd": 6892,
      "friend": 6893,
      "eline": 6894,
      "Ġunus": 6895,
      "Ġcoal": 6896,
      "Ġprotected": 6897,
      "Ġ1999": 6898,
      "Ġprompt": 6899,
      "Ġsatisfy": 6900,
      "ĠRoad": 6901,
      "Ġdangerous": 6902,
      "Ġoxygen": 6903,
      ")=\\": 6904,
      "rid": 6905,
      "tenance": 6906,
      "Ġ~": 6907,
      "Ġcm": 6908,
      "Ġnit": 6909,
      "uilding": 6910,
      "ĠSing": 6911,
      "Ġhouses": 6912,
      "Or": 6913,
      "âĢĺ": 6914,
      "Ġyes": 6915,
      "ĠProv": 6916,
      "Ġ75": 6917,
      "Ġelectronic": 6918,
      "Ġrevolution": 6919,
      "Ġenhance": 6920,
      "=\"": 6921,
      "Bl": 6922,
      "Ġstored": 6923,
      "Ġhero": 6924,
      "ĠLatin": 6925,
      "Ġinterior": 6926,
      "Ġspending": 6927,
      "ĠCalcul": 6928,
      "Ã¼": 6929,
      "Ġresid": 6930,
      "ologists": 6931,
      "Ġantib": 6932,
      "Ġcris": 6933,
      "Ġnormally": 6934,
      "nic": 6935,
      "eros": 6936,
      "Ġcriteria": 6937,
      "Î±": 6938,
      "aylor": 6939,
      "yer": 6940,
      "Ġworldwide": 6941,
      "Ġposted": 6942,
      "ects": 6943,
      "ograp": 6944,
      "Ġcream": 6945,
      "sim": 6946,
      "ĠSaf": 6947,
      "ua": 6948,
      "ĠThose": 6949,
      "Ġloop": 6950,
      "((": 6951,
      "Ġinteraction": 6952,
      "Ġsupporting": 6953,
      "Ġfulf": 6954,
      "58": 6955,
      "Ġstem": 6956,
      "Ġstable": 6957,
      "Ġrealize": 6958,
      "During": 6959,
      "sigma": 6960,
      "Ġthank": 6961,
      "Ġregional": 6962,
      "Ġdefining": 6963,
      "Ġprocedures": 6964,
      "Ġradiation": 6965,
      "ĠGeorg": 6966,
      "Ġgeometric": 6967,
      "Ġic": 6968,
      "ulum": 6969,
      "ĠMer": 6970,
      "Ġworse": 6971,
      "gu": 6972,
      "Ġcalculus": 6973,
      "Ġgender": 6974,
      "Ġsty": 6975,
      "eck": 6976,
      "Ġawareness": 6977,
      "Ġconve": 6978,
      "Ġrecon": 6979,
      "Well": 6980,
      "Ġ300": 6981,
      "Ġattacks": 6982,
      "Ġinsight": 6983,
      "Ġcutting": 6984,
      "Ġscenarios": 6985,
      "ĠLab": 6986,
      "Ġusage": 6987,
      "Ġmarkets": 6988,
      "burg": 6989,
      "Ġdy": 6990,
      "ĠSant": 6991,
      "ĠCommon": 6992,
      "Ġmarried": 6993,
      "Ġwonderful": 6994,
      "Ġgift": 6995,
      "Ġvul": 6996,
      "Ġnotation": 6997,
      "ĠColumb": 6998,
      "Ġoptimal": 6999,
      "Ġdomestic": 7000,
      "Ġcommitted": 7001,
      "Ġsto": 7002,
      "ĠMel": 7003,
      "ĠMad": 7004,
      "ĠVict": 7005,
      "Ġextension": 7006,
      "Ġpresentation": 7007,
      "ĠClub": 7008,
      "Ġaccounts": 7009,
      "Ġrapidly": 7010,
      "ĠCatholic": 7011,
      "uh": 7012,
      "Ġtight": 7013,
      "Ġtables": 7014,
      "Ġdream": 7015,
      "Ġsubsc": 7016,
      "Ġvirus": 7017,
      "ĠBlue": 7018,
      "Ġbrows": 7019,
      "Ġgrown": 7020,
      "Ġdiscussing": 7021,
      "Ġconsec": 7022,
      "ĠPub": 7023,
      "Ġclassic": 7024,
      "Ġtrigonomet": 7025,
      "Ġinstructions": 7026,
      "ĠMedicine": 7027,
      "oln": 7028,
      "ĠBest": 7029,
      "Ġtested": 7030,
      "Ġepis": 7031,
      "Ġsenior": 7032,
      "Ġcub": 7033,
      "Ġbeans": 7034,
      "Ġformation": 7035,
      "Ġentertain": 7036,
      "Ġmagnetic": 7037,
      "Ġsustainable": 7038,
      "Ġtackle": 7039,
      "ĠBob": 7040,
      "Ġcrew": 7041,
      "ĠFrank": 7042,
      "63": 7043,
      "Ġacknow": 7044,
      "Ġrail": 7045,
      "you": 7046,
      "eness": 7047,
      "step": 7048,
      "ĠCare": 7049,
      "throp": 7050,
      "ĠFil": 7051,
      "OC": 7052,
      "iture": 7053,
      "Ġmovements": 7054,
      "Ġ&=": 7055,
      "Ġintersection": 7056,
      "Ġstatistical": 7057,
      "Ġcycl": 7058,
      "Ġcrisis": 7059,
      "!)": 7060,
      "Ġcovers": 7061,
      "ĠEmpire": 7062,
      "eli": 7063,
      "Ġplenty": 7064,
      "Ġcoordinate": 7065,
      "list": 7066,
      "sets": 7067,
      "rastructure": 7068,
      "Ġsections": 7069,
      "Ġdirected": 7070,
      "Ġpolynomials": 7071,
      "Ġfro": 7072,
      "ulas": 7073,
      "Ġenthus": 7074,
      "Ġsteel": 7075,
      "Ġsubtract": 7076,
      "Ġprofessionals": 7077,
      "AG": 7078,
      "Ġfly": 7079,
      "Ġupdate": 7080,
      "Ġtriangles": 7081,
      "neg": 7082,
      "Ġinherent": 7083,
      "Ġthin": 7084,
      "Ġinsert": 7085,
      "Ġgoods": 7086,
      "vas": 7087,
      "Ġgall": 7088,
      "Ġdisorder": 7089,
      "Ġassumption": 7090,
      "`.": 7091,
      "</": 7092,
      "Ġbath": 7093,
      "verty": 7094,
      "Ġadm": 7095,
      "dule": 7096,
      "Ġcourses": 7097,
      "Ġobservation": 7098,
      "Ġdecrease": 7099,
      "cap": 7100,
      "Ġnutrition": 7101,
      "war": 7102,
      "Ġsession": 7103,
      "Ġcapture": 7104,
      "ÂłÂłÂłÂł": 7105,
      "Ġhypothesis": 7106,
      "ĠEconom": 7107,
      "Ġcomparing": 7108,
      "beta": 7109,
      "Ġphr": 7110,
      "forward": 7111,
      "Ġmessages": 7112,
      "Ġcomfortable": 7113,
      "Delta": 7114,
      "cher": 7115,
      "umps": 7116,
      "ĠPan": 7117,
      "ĠCheck": 7118,
      "ĠWall": 7119,
      "Ġsentence": 7120,
      "Ġcaught": 7121,
      "Ġwitness": 7122,
      "ĠNever": 7123,
      "ĠMean": 7124,
      "urrent": 7125,
      "ensus": 7126,
      "Ġtrail": 7127,
      "Ġevaluate": 7128,
      "ĠAlexander": 7129,
      "Ġreplaced": 7130,
      "ĠÂłĠÂł": 7131,
      "Ġcomposition": 7132,
      "Ġautomatically": 7133,
      "Can": 7134,
      "Cons": 7135,
      "cest": 7136,
      "ald": 7137,
      "Ġdisorders": 7138,
      "Ġpoverty": 7139,
      "anches": 7140,
      "Ġmarriage": 7141,
      "Ġdenominator": 7142,
      "Over": 7143,
      "ĠDou": 7144,
      "Ġequality": 7145,
      "Ġartists": 7146,
      "Ġanalog": 7147,
      "ĠExper": 7148,
      "Ġcalling": 7149,
      "Ġresolution": 7150,
      "Ġcooper": 7151,
      "Ġemissions": 7152,
      "Ġeggs": 7153,
      "ampions": 7154,
      "Ġstronger": 7155,
      "Ġdemoc": 7156,
      "Ġorth": 7157,
      "Ġsem": 7158,
      "ĠExpl": 7159,
      "Ġsurprise": 7160,
      "Ġblow": 7161,
      "ĠBefore": 7162,
      "Ġlengths": 7163,
      "Ġingredients": 7164,
      "Ġinsect": 7165,
      "Ġprobabilities": 7166,
      "value": 7167,
      "Ġtur": 7168,
      "Ġintric": 7169,
      "ĠSystems": 7170,
      "ployment": 7171,
      "Ġlaunched": 7172,
      "Ġlad": 7173,
      "Ġlung": 7174,
      "Ġdenote": 7175,
      "Ġmir": 7176,
      "agers": 7177,
      "ava": 7178,
      "ĠÂ·": 7179,
      "ĠSpecial": 7180,
      "Ġemotional": 7181,
      "^\\": 7182,
      "}}$": 7183,
      "Ġwidth": 7184,
      "itage": 7185,
      "ĠSil": 7186,
      "Ġpaths": 7187,
      "car": 7188,
      "Ġdive": 7189,
      "circ": 7190,
      "Ġec": 7191,
      "roke": 7192,
      "Ġ(\"": 7193,
      "Ġoccasion": 7194,
      "Ġsettings": 7195,
      "57": 7196,
      "Le": 7197,
      "ASA": 7198,
      "Ġamb": 7199,
      "Ġdecom": 7200,
      "Ġintroduction": 7201,
      "Ġindependence": 7202,
      "Ġevaluation": 7203,
      "Ġcontrolled": 7204,
      "Ġentered": 7205,
      "Ġsubjects": 7206,
      "ested": 7207,
      "ĠWord": 7208,
      "Ġtens": 7209,
      "Ġbrown": 7210,
      "Ġproducing": 7211,
      "Ġinspired": 7212,
      "Ġshares": 7213,
      "Ġserving": 7214,
      "Ġdriver": 7215,
      "Ġsucceed": 7216,
      "Please": 7217,
      "Ġaircraft": 7218,
      "Ġbone": 7219,
      "anguage": 7220,
      "Ġgravity": 7221,
      "Ġdebate": 7222,
      "________": 7223,
      "mond": 7224,
      "ora": 7225,
      "Ġkil": 7226,
      "Ġnarr": 7227,
      "ĠDig": 7228,
      "ĠVer": 7229,
      "Ġforming": 7230,
      "Ġachieved": 7231,
      "ctic": 7232,
      "ĠIll": 7233,
      "Ġexplains": 7234,
      "Ġpapers": 7235,
      "Ġcenturies": 7236,
      "Ġmoments": 7237,
      "Ġfalls": 7238,
      "ĠControl": 7239,
      "izer": 7240,
      "Then": 7241,
      "Ġguy": 7242,
      "Ġposts": 7243,
      "Ġperiods": 7244,
      "ĠDu": 7245,
      "ĠIII": 7246,
      "athe": 7247,
      "ĠWild": 7248,
      "Ġdollars": 7249,
      "var": 7250,
      "Ġconvert": 7251,
      "ML": 7252,
      "Ġfounded": 7253,
      "Ġreviews": 7254,
      "real": 7255,
      "âĢ²": 7256,
      "ĠThursday": 7257,
      "Ġcontrad": 7258,
      "Ġemployed": 7259,
      "een": 7260,
      "Ġmit": 7261,
      "Ġregularly": 7262,
      "Read": 7263,
      "ba": 7264,
      "Ġdance": 7265,
      "ĠCr": 7266,
      "Ġdesigns": 7267,
      "Ġ:=": 7268,
      "Ġera": 7269,
      "âĢĭ": 7270,
      "Ġanxiety": 7271,
      "ĠVis": 7272,
      "Ġdesire": 7273,
      "pat": 7274,
      "Ġregression": 7275,
      "igan": 7276,
      "Ġsensitive": 7277,
      "Ġencounter": 7278,
      "Ġpuzzle": 7279,
      "uts": 7280,
      "Ġ1998": 7281,
      "Ġvoltage": 7282,
      "54": 7283,
      "such": 7284,
      "itivity": 7285,
      "Ġadds": 7286,
      "Ġ1980": 7287,
      "ĠContin": 7288,
      "Ġconcentration": 7289,
      "SA": 7290,
      "Ġton": 7291,
      "rox": 7292,
      "sts": 7293,
      "Ġarrest": 7294,
      "Ġfairly": 7295,
      "Ġroute": 7296,
      "Ġconsequences": 7297,
      "eding": 7298,
      "char": 7299,
      "Ġproportion": 7300,
      "Ġsed": 7301,
      "Ġalter": 7302,
      "Ġguys": 7303,
      "ĠAbout": 7304,
      "Ġfeedback": 7305,
      "ette": 7306,
      "Ġvisible": 7307,
      "irty": 7308,
      "usions": 7309,
      "Ġaffects": 7310,
      "sell": 7311,
      "Ġnotion": 7312,
      "Ġmeters": 7313,
      "Ġdistributed": 7314,
      "98": 7315,
      "Ġagent": 7316,
      "Ġexposed": 7317,
      "Ġsubs": 7318,
      "Ġremark": 7319,
      "Ġcharges": 7320,
      "ĠJohnson": 7321,
      "Ġprepare": 7322,
      "Just": 7323,
      "Ġtoxic": 7324,
      "ĠDen": 7325,
      "Ġplate": 7326,
      "Ġemployment": 7327,
      "born": 7328,
      "Â·": 7329,
      "otion": 7330,
      "ĠLittle": 7331,
      "Ġages": 7332,
      "itudes": 7333,
      "stream": 7334,
      "ĠDespite": 7335,
      "Ġsignals": 7336,
      "rem": 7337,
      "ĠSov": 7338,
      "opes": 7339,
      "Ġproduces": 7340,
      "comm": 7341,
      "Ġpolitics": 7342,
      "ilibrium": 7343,
      "ĠLog": 7344,
      "linear": 7345,
      "Ġconsideration": 7346,
      "Ġmeasuring": 7347,
      "Ġarrive": 7348,
      "Ġadopted": 7349,
      ")*": 7350,
      "MP": 7351,
      "ĠViet": 7352,
      "Ġherself": 7353,
      "SE": 7354,
      "Ġaccident": 7355,
      "ĠDirector": 7356,
      "Ġstone": 7357,
      "ĠIns": 7358,
      "Ġproving": 7359,
      "Go": 7360,
      "sl": 7361,
      "Ġ?": 7362,
      "ĠUl": 7363,
      "Ġuniverse": 7364,
      "ĠYet": 7365,
      "Ġimmediate": 7366,
      "Ġcentre": 7367,
      "Ġfaced": 7368,
      "Ġintu": 7369,
      "ĠWood": 7370,
      "Ġchronic": 7371,
      "Ġensures": 7372,
      "Ġphotograph": 7373,
      "Ġauthorities": 7374,
      "ĠCarolina": 7375,
      "61": 7376,
      "Ġpump": 7377,
      "Ġcoin": 7378,
      "eting": 7379,
      "Ġattached": 7380,
      "ĠItaly": 7381,
      "Ġedition": 7382,
      "Ġacceleration": 7383,
      "FT": 7384,
      "elled": 7385,
      "Ġfilter": 7386,
      "Ġmultipl": 7387,
      "Ġhorse": 7388,
      "Ġdatabase": 7389,
      "Ġnewsp": 7390,
      "IA": 7391,
      "Ġgap": 7392,
      "epsilon": 7393,
      "ĠWednesday": 7394,
      "gamma": 7395,
      "Ġproud": 7396,
      "Ġmyth": 7397,
      "Ġextend": 7398,
      "Ġsitting": 7399,
      "Ġconvergence": 7400,
      "ala": 7401,
      "ĠFun": 7402,
      "Ġrotation": 7403,
      "rot": 7404,
      "Ġsemi": 7405,
      "erman": 7406,
      "Ġproved": 7407,
      "ato": 7408,
      "Ġstability": 7409,
      "Ġbutter": 7410,
      "weight": 7411,
      "ĠMartin": 7412,
      "cm": 7413,
      "normal": 7414,
      "Ġsan": 7415,
      "Ġforg": 7416,
      "Ġseat": 7417,
      "Ġinstalled": 7418,
      "UN": 7419,
      "Ġbird": 7420,
      "ĠPenn": 7421,
      "outs": 7422,
      "Ġlegs": 7423,
      "Ġinfinity": 7424,
      "Ġvehicles": 7425,
      "ĠDistrict": 7426,
      "}-": 7427,
      "ĠHot": 7428,
      "Ġneck": 7429,
      "Ġtaxes": 7430,
      "Ġsongs": 7431,
      "Ġphilosophy": 7432,
      "Ġbear": 7433,
      "ĠNumber": 7434,
      "eers": 7435,
      "itan": 7436,
      "Ġremote": 7437,
      "Ġdefend": 7438,
      "itar": 7439,
      "ĠTri": 7440,
      "ĠCast": 7441,
      "ĠBell": 7442,
      "ĠProblem": 7443,
      "Ġdepartment": 7444,
      "incoln": 7445,
      "Ġkeeps": 7446,
      "ĠTwitter": 7447,
      "Ġcurves": 7448,
      "Ġath": 7449,
      "Ġstrange": 7450,
      "UT": 7451,
      "Ġclock": 7452,
      "Ġfriendly": 7453,
      "Ġ($\\": 7454,
      "ĠSecret": 7455,
      "Ġhydrogen": 7456,
      "ĠMicrosoft": 7457,
      "Every": 7458,
      "ĠAud": 7459,
      "ĠJeff": 7460,
      "aining": 7461,
      "trans": 7462,
      ")||": 7463,
      "Ġpra": 7464,
      "ĠRights": 7465,
      "agues": 7466,
      "Ġvictory": 7467,
      "vy": 7468,
      "Ġtrials": 7469,
      "Ġelev": 7470,
      "Ġcharacteristic": 7471,
      "ĠGlobal": 7472,
      "Ġdiagonal": 7473,
      "96": 7474,
      "Ġwed": 7475,
      "Ġissued": 7476,
      "Ġnamely": 7477,
      "Ġillustrate": 7478,
      "Ġexperiments": 7479,
      "ĠSa": 7480,
      "Ġorbit": 7481,
      "olds": 7482,
      "Ġaccessible": 7483,
      "Ġdebt": 7484,
      "Ġadministr": 7485,
      "Ġparticipate": 7486,
      "Ġtelevision": 7487,
      "etheless": 7488,
      "Ġcharged": 7489,
      "Ġwinning": 7490,
      "Ġarguments": 7491,
      "Ġhonest": 7492,
      "Using": 7493,
      "Ġtank": 7494,
      "ĠSecurity": 7495,
      "Ġhonor": 7496,
      "noon": 7497,
      "inding": 7498,
      "plete": 7499,
      "âĪļ": 7500,
      "Ġengage": 7501,
      "inet": 7502,
      "Ġtrouble": 7503,
      "onym": 7504,
      "ĠNC": 7505,
      "Ġagencies": 7506,
      "Ġlock": 7507,
      "2013": 7508,
      "Ġconstructed": 7509,
      "Ġcomprehensive": 7510,
      "Ġmonitoring": 7511,
      "mail": 7512,
      "oral": 7513,
      "Ġintellect": 7514,
      "Ġgained": 7515,
      "Ġmeasurement": 7516,
      "Ġwestern": 7517,
      "73": 7518,
      "ĠOper": 7519,
      "oston": 7520,
      "Ġswim": 7521,
      "Ġfacing": 7522,
      "Ġstruggle": 7523,
      "Ġsomewhat": 7524,
      "Ġpracticing": 7525,
      "Ġdiversity": 7526,
      "Ġdelay": 7527,
      "ommod": 7528,
      "ĠâĪĪ": 7529,
      "array": 7530,
      "Ġdating": 7531,
      "ĠMen": 7532,
      "Ġsched": 7533,
      "Ġmoist": 7534,
      "Ġdepart": 7535,
      "Ġfilms": 7536,
      "Ġvideos": 7537,
      "Ġsnipp": 7538,
      "ĠLearning": 7539,
      "Ġthread": 7540,
      "ĠTreat": 7541,
      "agon": 7542,
      "Ġdependent": 7543,
      ".âĢĻ": 7544,
      "BN": 7545,
      "Ġpm": 7546,
      "Ġpil": 7547,
      "omer": 7548,
      "Ġbasket": 7549,
      "Ġclaimed": 7550,
      "84": 7551,
      "Ġasks": 7552,
      "ĠFollow": 7553,
      "Ġguidelines": 7554,
      ".'": 7555,
      "Ġsupports": 7556,
      "Ġfighting": 7557,
      "zed": 7558,
      "Ġtoler": 7559,
      "ĠBur": 7560,
      "ĠOx": 7561,
      "ĠScient": 7562,
      "Ġmachines": 7563,
      "Ġaudio": 7564,
      "ENT": 7565,
      "ocolate": 7566,
      "Ġmm": 7567,
      "ĠTake": 7568,
      "ĠEnd": 7569,
      "Ġvulner": 7570,
      "oric": 7571,
      "ĠSk": 7572,
      "51": 7573,
      "ĠStart": 7574,
      "Ġvertex": 7575,
      "Ġreasonable": 7576,
      "Ġlayers": 7577,
      "Ġinterpretation": 7578,
      "Ġfaces": 7579,
      "Ġtwenty": 7580,
      "Ġrecovery": 7581,
      "ĠâĨĴ": 7582,
      "ixture": 7583,
      "teen": 7584,
      "Ġflag": 7585,
      "azon": 7586,
      "Ġmusical": 7587,
      "called": 7588,
      "ns": 7589,
      "Ġstead": 7590,
      "osa": 7591,
      "ĠOl": 7592,
      "Ġassert": 7593,
      "Ġcounty": 7594,
      "Ġintelligence": 7595,
      "Ã³": 7596,
      "inity": 7597,
      "Ġdot": 7598,
      "ĠTaylor": 7599,
      "ĠLabor": 7600,
      "Ġunable": 7601,
      "Ġshell": 7602,
      "Ġsuit": 7603,
      "Ġabsolutely": 7604,
      "ĠDown": 7605,
      "Ġod": 7606,
      "anda": 7607,
      "Ġvitamin": 7608,
      "iche": 7609,
      "Ġlect": 7610,
      "Ġpayment": 7611,
      "Ġupdated": 7612,
      "Don": 7613,
      "Ġminimal": 7614,
      "Ġbranches": 7615,
      "Ġplanned": 7616,
      "ĠShow": 7617,
      "Ġdetermin": 7618,
      "Ġimproving": 7619,
      "ĠSeries": 7620,
      "Ġmillions": 7621,
      "plex": 7622,
      "$;": 7623,
      "rics": 7624,
      "Ġcab": 7625,
      "aria": 7626,
      "ĠSign": 7627,
      "ading": 7628,
      "Ġdrinking": 7629,
      "Ġsurprising": 7630,
      "Ġconsisting": 7631,
      "----------------": 7632,
      "Ġjudge": 7633,
      "Ġcollaboration": 7634,
      "ref": 7635,
      "rays": 7636,
      "Ġsupplies": 7637,
      "Ġmaintenance": 7638,
      "igenous": 7639,
      "Ġinteractions": 7640,
      "Ġfractions": 7641,
      "Ġfancy": 7642,
      "Ġtroops": 7643,
      "gon": 7644,
      "Ġdust": 7645,
      "ĠCall": 7646,
      "Ġtea": 7647,
      "awn": 7648,
      "iary": 7649,
      "iner": 7650,
      "Ġimper": 7651,
      "ĠKh": 7652,
      "Ġnewly": 7653,
      "Ġcomplement": 7654,
      "---": 7655,
      "ĠReal": 7656,
      "CA": 7657,
      "function": 7658,
      "lock": 7659,
      "Ġsought": 7660,
      "ĠLeague": 7661,
      "Ġhotel": 7662,
      "Ġefficiently": 7663,
      "rint": 7664,
      "ĠSouthern": 7665,
      "ĠHill": 7666,
      "Ġseed": 7667,
      "icken": 7668,
      "Ġfeels": 7669,
      "ĠReport": 7670,
      "Ġfruits": 7671,
      "DP": 7672,
      "RA": 7673,
      "uy": 7674,
      "Ġade": 7675,
      "reens": 7676,
      "ĠWal": 7677,
      "Ġprincipal": 7678,
      "aped": 7679,
      "Ġexplo": 7680,
      "Ġmarble": 7681,
      "ĠNetwork": 7682,
      "Ġsplit": 7683,
      "âī": 7684,
      "ĠHy": 7685,
      "Ġentries": 7686,
      "ĠForce": 7687,
      "Ġreceiving": 7688,
      "aska": 7689,
      "72": 7690,
      "tan": 7691,
      "Ġmuseum": 7692,
      "uality": 7693,
      "Ġboys": 7694,
      "Ġtreatments": 7695,
      "Ġinformed": 7696,
      "Ġsick": 7697,
      "Ġbot": 7698,
      "ollo": 7699,
      "Ġcoverage": 7700,
      "BS": 7701,
      "rine": 7702,
      "unning": 7703,
      "ĠLim": 7704,
      "ĠUnfortunately": 7705,
      "====": 7706,
      "Ġcandidate": 7707,
      "Ġcalculating": 7708,
      "ĠAst": 7709,
      "essions": 7710,
      "Ġinfrastructure": 7711,
      "Ġgreatly": 7712,
      "Ġanalyzing": 7713,
      "Ġdimension": 7714,
      "Ġsine": 7715,
      "ective": 7716,
      "ĠEp": 7717,
      "ults": 7718,
      "Ġdecade": 7719,
      "âĪŀ": 7720,
      "Ġpanel": 7721,
      "Ġappreciate": 7722,
      "hist": 7723,
      "Ġuniversity": 7724,
      "81": 7725,
      "DS": 7726,
      "Of": 7727,
      "Per": 7728,
      "Ġtheme": 7729,
      "Ġreliable": 7730,
      "obile": 7731,
      "ĠConnect": 7732,
      "ĠClick": 7733,
      "ĠOnline": 7734,
      "Ġimplications": 7735,
      "Dr": 7736,
      "erior": 7737,
      "lets": 7738,
      "ĠChapter": 7739,
      "delta": 7740,
      "Ġnegot": 7741,
      "ceived": 7742,
      "ĠAdminist": 7743,
      "Ġsatisfies": 7744,
      "Ġconsumers": 7745,
      "Ġampl": 7746,
      "ĠMusic": 7747,
      "this": 7748,
      "Ġkitchen": 7749,
      "ĠJac": 7750,
      "Ġwriters": 7751,
      "Ġinjuries": 7752,
      "Ġscores": 7753,
      "Ġhandling": 7754,
      "ĠIndeed": 7755,
      "cons": 7756,
      "Ġsqrt": 7757,
      "cules": 7758,
      "ĠRE": 7759,
      "Ġboat": 7760,
      "Ġyounger": 7761,
      "Ġfacility": 7762,
      "lights": 7763,
      "Ġborder": 7764,
      "Ġanywhere": 7765,
      "Ġcurious": 7766,
      "max": 7767,
      "Ġconcrete": 7768,
      "Ġconsecutive": 7769,
      "Ġsam": 7770,
      "Ġnodes": 7771,
      "ĠBir": 7772,
      "Ġstrongly": 7773,
      "Today": 7774,
      "Ġbought": 7775,
      "earing": 7776,
      "Get": 7777,
      "Ġwet": 7778,
      "open": 7779,
      "Ġcrim": 7780,
      "Ġarranged": 7781,
      "umbers": 7782,
      "Ġsurfaces": 7783,
      "ĠJoseph": 7784,
      "Ġsnippet": 7785,
      "jo": 7786,
      "Â®": 7787,
      "dem": 7788,
      "ĠCard": 7789,
      "ĠRoyal": 7790,
      "Ġrural": 7791,
      "Ġbringing": 7792,
      "Ġattempts": 7793,
      "bmatrix": 7794,
      "va": 7795,
      "hent": 7796,
      "Ġaccommod": 7797,
      "Ġenjoyed": 7798,
      "ocument": 7799,
      "Ġidentifying": 7800,
      "ognitive": 7801,
      "onald": 7802,
      "ĠSenate": 7803,
      "Ġunusual": 7804,
      "%.": 7805,
      ")}{": 7806,
      "ĠTer": 7807,
      "Ġfinds": 7808,
      "ĠMinister": 7809,
      "eless": 7810,
      "Ġmyster": 7811,
      "Ġchannel": 7812,
      "ndrome": 7813,
      "Ġalign": 7814,
      "Ġdifferently": 7815,
      "mega": 7816,
      "Ġsoul": 7817,
      "quate": 7818,
      "Ġsport": 7819,
      "Ġrepair": 7820,
      "Ġfarmers": 7821,
      "Ġstrengthen": 7822,
      "ĠCommunity": 7823,
      "Ġagricultural": 7824,
      "Ġcoach": 7825,
      "Ġskill": 7826,
      "CO": 7827,
      "hi": 7828,
      "ĠTH": 7829,
      "Ġadjacent": 7830,
      "Ġimmune": 7831,
      "iosity": 7832,
      "craft": 7833,
      "ĠSand": 7834,
      "ĠBible": 7835,
      "Ġbuying": 7836,
      "62": 7837,
      "atal": 7838,
      "Ġassigned": 7839,
      "Ġzone": 7840,
      "Ġ1970": 7841,
      "Ġsatell": 7842,
      "ĠHaw": 7843,
      "Ġgenerating": 7844,
      "Ġcontributions": 7845,
      "struction": 7846,
      "ĠPot": 7847,
      "ĠWrit": 7848,
      "Ġmatches": 7849,
      "Ġboost": 7850,
      "Ġcontribution": 7851,
      "liament": 7852,
      "Ġroutine": 7853,
      "ĠSoviet": 7854,
      "53": 7855,
      "93": 7856,
      "organ": 7857,
      "Ġconventional": 7858,
      "fast": 7859,
      "Ġsight": 7860,
      "Ġnations": 7861,
      "ĠJack": 7862,
      "ĠThanks": 7863,
      "Ġafternoon": 7864,
      "also": 7865,
      "Ġstores": 7866,
      "Ġconscious": 7867,
      "Ġchemicals": 7868,
      "Ġsail": 7869,
      "ĠBack": 7870,
      "Ġchair": 7871,
      "Ġdesk": 7872,
      "Ġdecor": 7873,
      "rapy": 7874,
      "Ġpollution": 7875,
      "etime": 7876,
      "Ġrid": 7877,
      "Ġcompens": 7878,
      "Ġdynamic": 7879,
      "Rem": 7880,
      "fe": 7881,
      "hop": 7882,
      "rho": 7883,
      "isk": 7884,
      "rovers": 7885,
      "Ġstraightforward": 7886,
      "Ġsoldiers": 7887,
      "83": 7888,
      "ĠKn": 7889,
      "Ġmonitor": 7890,
      "Ġintegrated": 7891,
      "Ġmechanism": 7892,
      "Ġlists": 7893,
      "ĠAR": 7894,
      "roups": 7895,
      "Ġinstances": 7896,
      "Ġvisitors": 7897,
      "Ġpicked": 7898,
      "Ed": 7899,
      "vari": 7900,
      "ĠAri": 7901,
      "ĠBab": 7902,
      "ĠLincoln": 7903,
      "Ġinstruction": 7904,
      "Ġmodified": 7905,
      "ĠMur": 7906,
      "Ġquiet": 7907,
      "iest": 7908,
      "Ġid": 7909,
      "Ġhur": 7910,
      "ĠNorthern": 7911,
      "ĠMaybe": 7912,
      "=(": 7913,
      "ï¿": 7914,
      "Ġscheme": 7915,
      "Ġstopped": 7916,
      "icate": 7917,
      "ĠHIV": 7918,
      "ĠWhere": 7919,
      "inction": 7920,
      "raq": 7921,
      "Ġabuse": 7922,
      "Ġthereby": 7923,
      "Ġtelling": 7924,
      "Ġversions": 7925,
      "antic": 7926,
      "Ġconfirmed": 7927,
      "acts": 7928,
      "Thus": 7929,
      "ĠAsh": 7930,
      "Ġfeelings": 7931,
      "Ġdiameter": 7932,
      "cycl": 7933,
      "Ġconfirm": 7934,
      "Ġforever": 7935,
      "74": 7936,
      "sm": 7937,
      "lymp": 7938,
      "aren": 7939,
      "ĠSpring": 7940,
      "Ġclassical": 7941,
      "iations": 7942,
      "ificial": 7943,
      "Ġsurvival": 7944,
      "http": 7945,
      "hol": 7946,
      "Ġtor": 7947,
      "Ġdeals": 7948,
      "Ġgraphs": 7949,
      "ĠProfessor": 7950,
      "fol": 7951,
      "Ġhole": 7952,
      "Ġproport": 7953,
      "Ġdigit": 7954,
      "Ġschedule": 7955,
      "Ġarrangement": 7956,
      "Ġiter": 7957,
      "ivered": 7958,
      "Ġoperators": 7959,
      "Ġbread": 7960,
      "Ġdeaths": 7961,
      "!âĢĿ": 7962,
      "à¤": 7963,
      "ĠNY": 7964,
      "ĠLos": 7965,
      "Ġloan": 7966,
      "Ġrectang": 7967,
      "ugh": 7968,
      "lete": 7969,
      "Ġformulas": 7970,
      "Ġdiver": 7971,
      "Ġdistributions": 7972,
      "NE": 7973,
      "Ġincident": 7974,
      "ï¿½": 7975,
      "making": 7976,
      "Ġselling": 7977,
      "Ġbunch": 7978,
      "Ġmine": 7979,
      "Ġcolour": 7980,
      "Ġflour": 7981,
      "Ġrising": 7982,
      "Ġpig": 7983,
      "ĠVictor": 7984,
      "zil": 7985,
      "Ġlosing": 7986,
      "ĠCre": 7987,
      "hesis": 7988,
      "Ġassumed": 7989,
      "Ġbreath": 7990,
      "Ġrigorous": 7991,
      "TH": 7992,
      "Ġproven": 7993,
      "Ġapplies": 7994,
      "Ġsilver": 7995,
      ")^{": 7996,
      "CE": 7997,
      "rooms": 7998,
      "Ġroughly": 7999,
      "Ġtwist": 8000,
      "Ġmyst": 8001,
      "Ġbiological": 8002,
      "ĠMedia": 8003,
      "Ġnutri": 8004,
      "Ġcryst": 8005,
      "Ġpermanent": 8006,
      "Ġveter": 8007,
      "Ġhall": 8008,
      "Ġoutl": 8009,
      "Ġraising": 8010,
      "Ġ48": 8011,
      "Ġmechanical": 8012,
      "SS": 8013,
      "Ġinstitution": 8014,
      "Ġdiagnosis": 8015,
      "Ġcoun": 8016,
      "ĠIT": 8017,
      "Ġrecognition": 8018,
      "isdom": 8019,
      "lements": 8020,
      "Ġresident": 8021,
      "Ġgovernments": 8022,
      "Ġ1997": 8023,
      "Are": 8024,
      "Ġapproved": 8025,
      "Ġresponses": 8026,
      "Ġhousing": 8027,
      "rangle": 8028,
      "ĠDev": 8029,
      "Ġremainder": 8030,
      "Ġtransformed": 8031,
      "Â³": 8032,
      "Ġren": 8033,
      "Ġsupplement": 8034,
      "ĠAdv": 8035,
      "elihood": 8036,
      "esides": 8037,
      "arks": 8038,
      "ĠFire": 8039,
      "Ġsubstitution": 8040,
      "ĠConference": 8041,
      "Ġimpacts": 8042,
      "Ġcarrying": 8043,
      "]$": 8044,
      "ali": 8045,
      "ghan": 8046,
      "ario": 8047,
      "Ġâī¤": 8048,
      "Up": 8049,
      "|\\": 8050,
      "stone": 8051,
      "Ġvisited": 8052,
      "Ġbasically": 8053,
      "Ġthousand": 8054,
      "CT": 8055,
      "ĊĠĠ": 8056,
      "Ġjoy": 8057,
      "Ġalongside": 8058,
      "bridge": 8059,
      "Ġimprovement": 8060,
      "ĠSuppose": 8061,
      "idance": 8062,
      "Ġancest": 8063,
      "âĢĻ.": 8064,
      "Ġvarying": 8065,
      "Ġlogarithm": 8066,
      "Pe": 8067,
      "Ġinterm": 8068,
      "ĠBox": 8069,
      "lishing": 8070,
      "Ġsubstance": 8071,
      "ĠArea": 8072,
      "asters": 8073,
      "Ġteen": 8074,
      "Ġ1960": 8075,
      "Ġdepict": 8076,
      "Ġcrime": 8077,
      "Ġarts": 8078,
      "Ġofficer": 8079,
      "Ġtut": 8080,
      "pled": 8081,
      "Ġ1995": 8082,
      "Ġsuffering": 8083,
      "Where": 8084,
      "door": 8085,
      "gers": 8086,
      "yan": 8087,
      "Ġcodes": 8088,
      "Ġenforce": 8089,
      "Ġsomewhere": 8090,
      "ĠConstitution": 8091,
      "Ġlandscape": 8092,
      "aus": 8093,
      "ĠIran": 8094,
      "Ġagents": 8095,
      "ĠMoon": 8096,
      "ĠStudies": 8097,
      "Ġrecipe": 8098,
      "iams": 8099,
      "xy": 8100,
      "Ġgal": 8101,
      "ĠFort": 8102,
      "Ġaccum": 8103,
      "Ġending": 8104,
      "Ġcontemporary": 8105,
      "ican": 8106,
      "Ġrely": 8107,
      "Ġabund": 8108,
      "Ġprovider": 8109,
      "Ġexamination": 8110,
      "vironments": 8111,
      "Ġseparately": 8112,
      "Ġtheories": 8113,
      "imer": 8114,
      "Ġorb": 8115,
      "Ġdoi": 8116,
      "Ġdism": 8117,
      "Ġroles": 8118,
      "ĠCharl": 8119,
      "Col": 8120,
      "ĠLead": 8121,
      "Ġrelief": 8122,
      "Ġdiffer": 8123,
      "ĠÏĢ": 8124,
      "Ġcandidates": 8125,
      "Ġlegisl": 8126,
      "Ġfoss": 8127,
      "Ġsup": 8128,
      "Ġdecay": 8129,
      "ĠCode": 8130,
      "ĠMcC": 8131,
      "Even": 8132,
      "LC": 8133,
      "inated": 8134,
      "ĠEll": 8135,
      "Ġworst": 8136,
      "asts": 8137,
      "Ġpainting": 8138,
      "2012": 8139,
      "Ġvegetables": 8140,
      "ĠUt": 8141,
      "Ġtransp": 8142,
      "ussian": 8143,
      "Ġoperate": 8144,
      "Ġradical": 8145,
      "cosystem": 8146,
      "ĠAnalysis": 8147,
      "Ġreveals": 8148,
      ".||": 8149,
      "rance": 8150,
      "Ġarc": 8151,
      "Ġtrained": 8152,
      "Ġpursu": 8153,
      "Ġride": 8154,
      "Ġspan": 8155,
      "Ġspoke": 8156,
      "ĠJun": 8157,
      "Ġinterface": 8158,
      "Ġprofit": 8159,
      "Ġcontrols": 8160,
      "Ġvariance": 8161,
      "Ġcommitment": 8162,
      "ĠAtlantic": 8163,
      "Ġarmed": 8164,
      "Ġmoon": 8165,
      "Ġcommission": 8166,
      "Ġdigits": 8167,
      "ĠGeorgia": 8168,
      "Ġsad": 8169,
      "ĠLight": 8170,
      "Ġwheel": 8171,
      "Ġouter": 8172,
      "Ġestate": 8173,
      "Ġassuming": 8174,
      "Ġspectrum": 8175,
      "Ġadventure": 8176,
      "ĠFamily": 8177,
      "ucl": 8178,
      "ĠBoston": 8179,
      "geq": 8180,
      "Ġinvent": 8181,
      "Ġeverywhere": 8182,
      "Ġordinary": 8183,
      "Ġrobust": 8184,
      "Ġinnovation": 8185,
      "Ġpounds": 8186,
      "Ġkin": 8187,
      "Ġeveryday": 8188,
      "ymmet": 8189,
      "Ġlaid": 8190,
      "Ġmoral": 8191,
      "Ġinterpre": 8192,
      "ras": 8193,
      "Ġseeds": 8194,
      "ureau": 8195,
      "Ġdoors": 8196,
      "Ġequilibrium": 8197,
      "ĠScot": 8198,
      "erring": 8199,
      "Ġdeeply": 8200,
      "Ġsymmetry": 8201,
      "Ġexperimental": 8202,
      "Ġrestrictions": 8203,
      "cor": 8204,
      "Ġcot": 8205,
      "ĠTO": 8206,
      "aded": 8207,
      "ĠPract": 8208,
      "abel": 8209,
      "Ġgenerations": 8210,
      "Ġresulted": 8211,
      "Ġreasoning": 8212,
      "Ġfalling": 8213,
      "71": 8214,
      "Ġevil": 8215,
      "Ġsheet": 8216,
      "Ġconclude": 8217,
      "Ġreveal": 8218,
      "Ġhabitat": 8219,
      "case": 8220,
      "lied": 8221,
      "Ġpointed": 8222,
      "Ġmarine": 8223,
      "Ġmarks": 8224,
      "Ġlogical": 8225,
      "oken": 8226,
      "Ġtheoretical": 8227,
      "Part": 8228,
      "âģ": 8229,
      "aph": 8230,
      "Ġpreced": 8231,
      "Ġdecimal": 8232,
      "Ġhealthcare": 8233,
      "Ġaccomplish": 8234,
      "Ġbattery": 8235,
      "Ġille": 8236,
      "oxide": 8237,
      "ĠKingdom": 8238,
      "Ġmanufacturing": 8239,
      "Ġbehaviour": 8240,
      "Ġcriminal": 8241,
      "cup": 8242,
      "Ġ400": 8243,
      "Ġcenters": 8244,
      "Ġ1996": 8245,
      "Ġwildlife": 8246,
      "esterday": 8247,
      "ĠIdent": 8248,
      "%,": 8249,
      "ĠNatural": 8250,
      "Ġ33": 8251,
      "Ġinputs": 8252,
      "Ġterritory": 8253,
      "write": 8254,
      "Ġ^": 8255,
      "ĠThink": 8256,
      "Ġquot": 8257,
      "Ġvariation": 8258,
      "Ġtransmission": 8259,
      "VD": 8260,
      "las": 8261,
      "she": 8262,
      "Ġsod": 8263,
      "ĠWay": 8264,
      "Ġshock": 8265,
      "oval": 8266,
      "Ġdraft": 8267,
      "Ġrevenue": 8268,
      "Ġstages": 8269,
      "Ġrelate": 8270,
      "orney": 8271,
      "ateral": 8272,
      "Ġsuperior": 8273,
      "Ġholiday": 8274,
      "host": 8275,
      "estyle": 8276,
      "Ġtotally": 8277,
      "Ġanticip": 8278,
      "Ġguarantee": 8279,
      "idation": 8280,
      "ĠHand": 8281,
      "Ġshipping": 8282,
      "reek": 8283,
      "Ġimmig": 8284,
      "Ġinfections": 8285,
      "ĠAff": 8286,
      "Ġshopping": 8287,
      "ĠThree": 8288,
      "pson": 8289,
      "Ġengaged": 8290,
      "pendicular": 8291,
      "agnetic": 8292,
      "82": 8293,
      "âĢĻ,": 8294,
      "uled": 8295,
      "Ġstack": 8296,
      "rive": 8297,
      "Ġraw": 8298,
      "Before": 8299,
      "Che": 8300,
      "date": 8301,
      "uction": 8302,
      "Ġdates": 8303,
      "Ġreader": 8304,
      "Ġconstitution": 8305,
      "&=": 8306,
      "FC": 8307,
      "Ġnan": 8308,
      "Any": 8309,
      "Ġtag": 8310,
      "itative": 8311,
      "Ġble": 8312,
      "anned": 8313,
      "Ġdecline": 8314,
      "heast": 8315,
      "Ġlens": 8316,
      "Ġpromise": 8317,
      "Ġselecting": 8318,
      "Ġheavily": 8319,
      "Ġtransportation": 8320,
      "Yes": 8321,
      "ĠEth": 8322,
      "ĠGM": 8323,
      "Ġchildhood": 8324,
      "ĠIraq": 8325,
      "ĠSup": 8326,
      "Ġprohib": 8327,
      "andon": 8328,
      "LA": 8329,
      "uan": 8330,
      "ï¼": 8331,
      "acher": 8332,
      "ĠFour": 8333,
      "ĠStandard": 8334,
      "whel": 8335,
      "Ġsoph": 8336,
      "iser": 8337,
      "Ġretail": 8338,
      "ĠNASA": 8339,
      "uation": 8340,
      "Ġsphere": 8341,
      "Ġelected": 8342,
      "Ġdescribing": 8343,
      "Ġlowest": 8344,
      "enny": 8345,
      "Ġarchitecture": 8346,
      "LS": 8347,
      "unc": 8348,
      "Ġspots": 8349,
      "ĠOlymp": 8350,
      "Ġplain": 8351,
      "Ġprofile": 8352,
      "Ġassociation": 8353,
      "Ġexpectations": 8354,
      "Ġembed": 8355,
      "Ġdestroyed": 8356,
      "Ġtom": 8357,
      "ĠAccess": 8358,
      "Ġcomposed": 8359,
      "ĠThough": 8360,
      "ders": 8361,
      "ĠNOT": 8362,
      "Ġjur": 8363,
      "Ġbuck": 8364,
      "Ġelectrons": 8365,
      "Ġgrasp": 8366,
      "Ġsimpler": 8367,
      "Ġintricate": 8368,
      "EE": 8369,
      "Ġweights": 8370,
      "ĠJon": 8371,
      "Ġdoctors": 8372,
      "Ġrequiring": 8373,
      "Ġcovering": 8374,
      "riculum": 8375,
      "Ġacids": 8376,
      "ĠAgain": 8377,
      "opyright": 8378,
      "Ġcyl": 8379,
      "oust": 8380,
      "ĠFarm": 8381,
      "Ġchecking": 8382,
      "Ġdelivered": 8383,
      "inomial": 8384,
      "Ġdinner": 8385,
      "Ġsubstitute": 8386,
      "Ġearthqu": 8387,
      "Ġwelcome": 8388,
      "omach": 8389,
      "Ġgrows": 8390,
      "Ġproteins": 8391,
      "ĠApollo": 8392,
      "\\,": 8393,
      "Ġlands": 8394,
      "alities": 8395,
      "Ġven": 8396,
      "ĠLi": 8397,
      "ĠJim": 8398,
      "Ġguard": 8399,
      "Ġstreets": 8400,
      "Reg": 8401,
      "ĠWik": 8402,
      "Ġregul": 8403,
      "ĠAward": 8404,
      "ector": 8405,
      "uals": 8406,
      "Ġinspect": 8407,
      "FA": 8408,
      "Ġatoms": 8409,
      "orry": 8410,
      "Ġinflam": 8411,
      "ĠÎ¸": 8412,
      "Ġofficers": 8413,
      "Ġalbum": 8414,
      "97": 8415,
      "SP": 8416,
      "school": 8417,
      "ãĢ": 8418,
      "Ġarise": 8419,
      "Ġcolleagues": 8420,
      "chers": 8421,
      "des": 8422,
      "ĠWeek": 8423,
      "Ġpublication": 8424,
      "ĠField": 8425,
      "ibl": 8426,
      "space": 8427,
      "ĠKey": 8428,
      "ĠAuthor": 8429,
      "iot": 8430,
      "Ġ120": 8431,
      "istent": 8432,
      "Ġchose": 8433,
      "Ġmeal": 8434,
      "epend": 8435,
      "ĠSpain": 8436,
      "including": 8437,
      "lar": 8438,
      "Ġbon": 8439,
      "Ġnurs": 8440,
      "orted": 8441,
      "Ġunw": 8442,
      "range": 8443,
      "rants": 8444,
      "eras": 8445,
      "urable": 8446,
      "Ġcontrovers": 8447,
      "Ġregulations": 8448,
      "Ġexhibit": 8449,
      "Ġuniversal": 8450,
      "count": 8451,
      "uct": 8452,
      "Ġpin": 8453,
      "Ġlunch": 8454,
      "Ġenvironments": 8455,
      "lessly": 8456,
      "Ġsecondary": 8457,
      "Ġ150": 8458,
      "ĠAmong": 8459,
      "asi": 8460,
      "Ġbridge": 8461,
      "Ġdropped": 8462,
      "Ġvictims": 8463,
      "grad": 8464,
      "Ġfinger": 8465,
      "Ġintrig": 8466,
      "ĠMot": 8467,
      "angers": 8468,
      "Ġbusy": 8469,
      "RI": 8470,
      "ĠIre": 8471,
      "ĠBern": 8472,
      "Ġshif": 8473,
      "ĠProduct": 8474,
      "Ġrequirement": 8475,
      "Ġconsumer": 8476,
      "Ġoptimization": 8477,
      "icide": 8478,
      "Ġbeach": 8479,
      "omega": 8480,
      "Ġaccurately": 8481,
      "Ġescape": 8482,
      "Ġlikelihood": 8483,
      "bell": 8484,
      "Ġalk": 8485,
      "Ġranging": 8486,
      "ĠNature": 8487,
      "Ġnode": 8488,
      "ĠCoast": 8489,
      "Ġutility": 8490,
      "ĠMars": 8491,
      "Ġguests": 8492,
      "Ġtopology": 8493,
      "tail": 8494,
      "rand": 8495,
      "Ġstood": 8496,
      "ĠKnow": 8497,
      "ĠYoung": 8498,
      "ĠInteg": 8499,
      "Ġpreferred": 8500,
      "^-": 8501,
      "ldots": 8502,
      "Ġoblig": 8503,
      "scale": 8504,
      "cribed": 8505,
      "FL": 8506,
      "reams": 8507,
      "changed": 8508,
      "Ġspons": 8509,
      "ĠKar": 8510,
      "Ġguidance": 8511,
      "Ġhardware": 8512,
      "Ġhistoric": 8513,
      "Ġcircular": 8514,
      "Ġmixture": 8515,
      "ĠMP": 8516,
      "ĠMah": 8517,
      "ptic": 8518,
      "ansas": 8519,
      "inson": 8520,
      "Ġcooking": 8521,
      "semb": 8522,
      "Ġpeak": 8523,
      "ypes": 8524,
      "Ġmetric": 8525,
      "Ġpresents": 8526,
      "athered": 8527,
      ":||": 8528,
      "Def": 8529,
      "rage": 8530,
      "Ġsister": 8531,
      "plicity": 8532,
      "Ġ]": 8533,
      "Ġtough": 8534,
      "plot": 8535,
      "ideo": 8536,
      "Ġ34": 8537,
      "ĠArmen": 8538,
      "Ġmodul": 8539,
      "Ġcopyright": 8540,
      "cription": 8541,
      "dots": 8542,
      "Ġfo": 8543,
      "Ġreaches": 8544,
      "claim": 8545,
      "ĠChem": 8546,
      "Ġsummar": 8547,
      "ĠColorado": 8548,
      "GB": 8549,
      "azz": 8550,
      "ĠâĪļ": 8551,
      "Ġdeclared": 8552,
      "Ġtrends": 8553,
      "Ġgro": 8554,
      "Ġcorn": 8555,
      "ĠAngeles": 8556,
      "HS": 8557,
      "ĠBattle": 8558,
      "Ġvibr": 8559,
      "ĠLee": 8560,
      "Ġcompound": 8561,
      "ĠInvest": 8562,
      "ĠSciences": 8563,
      "points": 8564,
      "found": 8565,
      "Ġbases": 8566,
      "Ġbanks": 8567,
      "ĠEss": 8568,
      "aken": 8569,
      "Ġconserv": 8570,
      "Ġassumptions": 8571,
      "indu": 8572,
      "ĠEastern": 8573,
      "everal": 8574,
      "negative": 8575,
      "94": 8576,
      "Ġcompounds": 8577,
      "ĠInit": 8578,
      "awa": 8579,
      "rates": 8580,
      "owed": 8581,
      "Ġopposed": 8582,
      "Ġprotocol": 8583,
      "Ġharder": 8584,
      "ĠOrig": 8585,
      "ĠDivision": 8586,
      "ĠAge": 8587,
      "Ġsharp": 8588,
      "ATION": 8589,
      "Ġdifficulty": 8590,
      "Ġintegrals": 8591,
      "Figure": 8592,
      "kay": 8593,
      "ĠCult": 8594,
      "Ġvice": 8595,
      "ĠRome": 8596,
      "Ġcommunicate": 8597,
      "quir": 8598,
      "istant": 8599,
      "iana": 8600,
      "Ġmedication": 8601,
      "Ġ1994": 8602,
      "Ġinnovative": 8603,
      "Ġdiscrete": 8604,
      "Ġbags": 8605,
      "Ġmuscles": 8606,
      "Ġcontinuing": 8607,
      "Ġceremon": 8608,
      "Ġfabric": 8609,
      "ĠPsych": 8610,
      "Ġ$(\\": 8611,
      "Ġrooms": 8612,
      "ropical": 8613,
      "Ġmolecules": 8614,
      "ĠDutch": 8615,
      "Ġunity": 8616,
      "Ġrecover": 8617,
      "ymph": 8618,
      "Ġsuspect": 8619,
      "92": 8620,
      "Under": 8621,
      "Ġhorm": 8622,
      "âĪĤ": 8623,
      "2010": 8624,
      "Ġminds": 8625,
      "Ġengineers": 8626,
      "Ġsuffer": 8627,
      "Ġfishing": 8628,
      "vial": 8629,
      "Ġhat": 8630,
      "Ġgiant": 8631,
      "ĠType": 8632,
      "ĠCreat": 8633,
      "Ġhem": 8634,
      "Ġblind": 8635,
      "Ġconstantly": 8636,
      "ĠHT": 8637,
      "placement": 8638,
      "ĠDoes": 8639,
      "En": 8640,
      "Ġbare": 8641,
      "Ġecosystem": 8642,
      "#####": 8643,
      "ĠPortug": 8644,
      "ĠEnvironmental": 8645,
      "->": 8646,
      "raig": 8647,
      "ĠGame": 8648,
      "Ġabandon": 8649,
      "Ġcheap": 8650,
      "Also": 8651,
      "Ġmomentum": 8652,
      "Ġstrike": 8653,
      "Ġinstrument": 8654,
      "Ġguitar": 8655,
      "Ġlights": 8656,
      "Ġstrictly": 8657,
      "Ġmac": 8658,
      "ĠTry": 8659,
      "plo": 8660,
      "Ġcompetitive": 8661,
      "Ġbelongs": 8662,
      "stant": 8663,
      "Ġpreserving": 8664,
      "uset": 8665,
      "Me": 8666,
      "cho": 8667,
      "Ġhaz": 8668,
      "Ġbene": 8669,
      "Ġboundaries": 8670,
      "ĠStudy": 8671,
      "ĠOhio": 8672,
      "ĠCancer": 8673,
      "ĠBa": 8674,
      "ĠFigure": 8675,
      "ĠEst": 8676,
      "ĠJones": 8677,
      "Ġopposition": 8678,
      "Ġexception": 8679,
      "Ġgent": 8680,
      "ĠNations": 8681,
      "Ġreflection": 8682,
      "Ġcaptured": 8683,
      "About": 8684,
      "Ġconvex": 8685,
      "inde": 8686,
      "Ġwearing": 8687,
      "Ġunp": 8688,
      "Ġintersect": 8689,
      "Ġcollections": 8690,
      "isters": 8691,
      "Ġwarming": 8692,
      "Ġasc": 8693,
      "ĠMD": 8694,
      "Ġranges": 8695,
      "Ġevaluating": 8696,
      "Ġterror": 8697,
      "Mar": 8698,
      "Ġchances": 8699,
      "Ġreduces": 8700,
      "Ġseparated": 8701,
      "Ġcorporate": 8702,
      "ä¸": 8703,
      "Ġtrading": 8704,
      "Ġ55": 8705,
      "ĠNewton": 8706,
      "Ġcharacterized": 8707,
      "ĠWilliams": 8708,
      "Î»": 8709,
      "esome": 8710,
      "Ġowned": 8711,
      "Ġrarely": 8712,
      "Pre": 8713,
      "bai": 8714,
      "uce": 8715,
      "Ġintense": 8716,
      "Ġscope": 8717,
      "Ġ65": 8718,
      "ĠSem": 8719,
      "ĠPage": 8720,
      "Ð¾": 8721,
      "actors": 8722,
      "osaur": 8723,
      "Ġcultures": 8724,
      "grade": 8725,
      "Ġreactions": 8726,
      "culty": 8727,
      "igation": 8728,
      "Ġcontainer": 8729,
      "Ġpaying": 8730,
      "Ġmeaningful": 8731,
      "Ġuncertainty": 8732,
      "green": 8733,
      "estions": 8734,
      "ĠRef": 8735,
      "Ġimplying": 8736,
      "Ġmood": 8737,
      "Ġpron": 8738,
      "Ġaccord": 8739,
      "Through": 8740,
      "Ġwrites": 8741,
      "Ġbounded": 8742,
      "Ġutilize": 8743,
      "alog": 8744,
      "osph": 8745,
      "Ġspo": 8746,
      "Ġregister": 8747,
      "psilon": 8748,
      "âĪ«": 8749,
      "mann": 8750,
      "Ġwindows": 8751,
      "Ġbeliefs": 8752,
      "Ġsubstantial": 8753,
      "BI": 8754,
      "hire": 8755,
      "ativity": 8756,
      "Ġment": 8757,
      "Ġongoing": 8758,
      "ĠHunt": 8759,
      "Ġaddressing": 8760,
      "Ġsurvive": 8761,
      "Ġmolecular": 8762,
      "Ġreplacement": 8763,
      "HA": 8764,
      "Ġfiction": 8765,
      "ĠBul": 8766,
      "Ġmagazine": 8767,
      "ĠBrazil": 8768,
      "ĠRepublican": 8769,
      "Ġvirtual": 8770,
      "ĠFrancisco": 8771,
      "Ġwisdom": 8772,
      "Ġtooth": 8773,
      "Ġ1000": 8774,
      "culpt": 8775,
      "arters": 8776,
      "Ġrecycl": 8777,
      "Ġgranted": 8778,
      "Ġsacr": 8779,
      "ĠRevolution": 8780,
      "Ġexplicitly": 8781,
      "$).": 8782,
      "Ġaver": 8783,
      "ishop": 8784,
      "Ġequipped": 8785,
      "Ġlistening": 8786,
      "Ġprecision": 8787,
      "Ġexecutive": 8788,
      "Ġharvest": 8789,
      "bel": 8790,
      "cium": 8791,
      "iating": 8792,
      "ĠMaster": 8793,
      "century": 8794,
      "Ġpasses": 8795,
      "ĠClin": 8796,
      "ĠCentre": 8797,
      "Ġearned": 8798,
      "riction": 8799,
      "bered": 8800,
      "hyd": 8801,
      "oir": 8802,
      "Ġsessions": 8803,
      "Ġye": 8804,
      "ĠDC": 8805,
      "ĠVari": 8806,
      "Ġ...,": 8807,
      "ĠColumbia": 8808,
      "ani": 8809,
      "heric": 8810,
      "Ġflash": 8811,
      "Ġarrangements": 8812,
      "Ġsle": 8813,
      "lean": 8814,
      "culation": 8815,
      "ĠOR": 8816,
      "Ġpermission": 8817,
      "Ġperpendicular": 8818,
      "ruption": 8819,
      "Ġhydro": 8820,
      "Ġagriculture": 8821,
      "')": 8822,
      "Ġhab": 8823,
      "ĠBal": 8824,
      "ogene": 8825,
      "Ġ37": 8826,
      "ĠView": 8827,
      "Ġvariations": 8828,
      "Ġcounts": 8829,
      "Ġtermin": 8830,
      "ĠPrinc": 8831,
      "Ġimplemented": 8832,
      "Supp": 8833,
      "vard": 8834,
      "Ġmand": 8835,
      "Ġdual": 8836,
      "Ġalive": 8837,
      "ipedia": 8838,
      "Ġvisiting": 8839,
      "Ġengaging": 8840,
      "Ġmenu": 8841,
      "baijan": 8842,
      "91": 8843,
      "ĠCart": 8844,
      "ĠCost": 8845,
      "ĠLow": 8846,
      "Ġsubmit": 8847,
      "Ġchest": 8848,
      "Ġapproximation": 8849,
      "haust": 8850,
      "Ġlegislation": 8851,
      "Ġcrops": 8852,
      "Ġreward": 8853,
      "Ġeastern": 8854,
      "being": 8855,
      "zerbaijan": 8856,
      "gment": 8857,
      "Ġsou": 8858,
      "Ġrose": 8859,
      "Ġfee": 8860,
      "Ġbelieves": 8861,
      "Ġfocuses": 8862,
      "Ġmorph": 8863,
      "Ġcoc": 8864,
      "asant": 8865,
      "ĠPDF": 8866,
      "Ġcomputation": 8867,
      "ĠÎ»": 8868,
      "Ġrepeat": 8869,
      "Ġregistered": 8870,
      "Ġsuddenly": 8871,
      "John": 8872,
      "ilton": 8873,
      "Ġchrom": 8874,
      "ĠVen": 8875,
      "Ġinstruments": 8876,
      "PC": 8877,
      "Ġtends": 8878,
      "arly": 8879,
      "Ġstomach": 8880,
      "abs": 8881,
      "ailable": 8882,
      "prise": 8883,
      "Ġwebsites": 8884,
      "Ġtransformations": 8885,
      "ĠMichigan": 8886,
      "Sure": 8887,
      "riers": 8888,
      "ondition": 8889,
      "Ġtopological": 8890,
      "Ġbroadcast": 8891,
      "ĠISBN": 8892,
      "orical": 8893,
      "Ġvot": 8894,
      "Ġsyndrome": 8895,
      "ĠĠĠĠĠĠĠ": 8896,
      "Stud": 8897,
      "Ġexponent": 8898,
      "html": 8899,
      "ye": 8900,
      "Ġtap": 8901,
      "Ġpit": 8902,
      "Ġnest": 8903,
      "Ġoverwhel": 8904,
      "Ġ$\\{": 8905,
      "Ġfrequencies": 8906,
      "ĠEff": 8907,
      "Ġactor": 8908,
      "Ġinvestors": 8909,
      "Ġaccounting": 8910,
      "TR": 8911,
      "draw": 8912,
      "olt": 8913,
      "ĠOpt": 8914,
      "Ġfeat": 8915,
      "Ġabsence": 8916,
      "Ġconversion": 8917,
      "Ġtons": 8918,
      "ĠColl": 8919,
      "Ġmedications": 8920,
      "Ġpenal": 8921,
      "Im": 8922,
      "fish": 8923,
      "Ġmail": 8924,
      "$),": 8925,
      "OV": 8926,
      "Ġtranslation": 8927,
      "ĠSat": 8928,
      "Ġmapping": 8929,
      "Ġdefic": 8930,
      "Ġinfluenced": 8931,
      "Cal": 8932,
      "Ġwra": 8933,
      "ĠCross": 8934,
      "Ġcomprom": 8935,
      "Ġapple": 8936,
      "ĠAmazon": 8937,
      "Ġintensity": 8938,
      "ĠHor": 8939,
      "Ġplug": 8940,
      "ĠHead": 8941,
      "Ġauthent": 8942,
      "Ġpassage": 8943,
      "Ġ1993": 8944,
      "ĠCorpor": 8945,
      "Pr": 8946,
      "ĠMach": 8947,
      "ĠYOU": 8948,
      "Ġdemands": 8949,
      "ĠNotice": 8950,
      "Ġencouraged": 8951,
      "}(\\": 8952,
      "Ġrings": 8953,
      "Ġcompos": 8954,
      "Ġdisk": 8955,
      "Ġexamining": 8956,
      "Ġelementary": 8957,
      "Ġcleaning": 8958,
      "Ġprinted": 8959,
      "Ġcommunications": 8960,
      "Ġinhib": 8961,
      "endar": 8962,
      "Ġmamm": 8963,
      "ĠWorks": 8964,
      "ĠOffic": 8965,
      "Ġpurchased": 8966,
      "Ġinstallation": 8967,
      "ĠIrish": 8968,
      "yal": 8969,
      "ðŁ": 8970,
      "Ġbike": 8971,
      "ura": 8972,
      "ĠLove": 8973,
      "comp": 8974,
      "ĠAsian": 8975,
      "Ġincorrect": 8976,
      "pread": 8977,
      "uity": 8978,
      "ĠOcean": 8979,
      "Ġbeneath": 8980,
      "gov": 8981,
      "iac": 8982,
      "ĠMid": 8983,
      "neys": 8984,
      "ribution": 8985,
      "Ġdiscount": 8986,
      "ĠÎ±": 8987,
      "Ġlosses": 8988,
      "Ġincredible": 8989,
      "ĠNevertheless": 8990,
      "ĠTable": 8991,
      "Ġcommittee": 8992,
      "PM": 8993,
      "non": 8994,
      "opic": 8995,
      "Ġspark": 8996,
      "ĠObs": 8997,
      "Ġsubstit": 8998,
      "Ġdriven": 8999,
      "Ġemployee": 9000,
      "Ġmultiplied": 9001,
      "Ġ1992": 9002,
      "2009": 9003,
      "Ġcrack": 9004,
      "Ġfertil": 9005,
      "oured": 9006,
      "0000": 9007,
      "Ġundert": 9008,
      "Ġangular": 9009,
      "Ġphenomena": 9010,
      "seud": 9011,
      "plate": 9012,
      "idespread": 9013,
      "Ġindustries": 9014,
      "Ġsearching": 9015,
      "Ġaqu": 9016,
      "opher": 9017,
      "ĠResp": 9018,
      "ĠApplic": 9019,
      "Ġroads": 9020,
      "after": 9021,
      "ĠSection": 9022,
      "Ġcolored": 9023,
      "Ġextens": 9024,
      "Ġcultiv": 9025,
      "Ġindicated": 9026,
      "Ġenemy": 9027,
      "ĠMill": 9028,
      "ĠTheory": 9029,
      "Ġchocolate": 9030,
      "Ġintellectual": 9031,
      "Ġlibr": 9032,
      "ĠCirc": 9033,
      "Ġplacing": 9034,
      "Ġdispl": 9035,
      "achuset": 9036,
      "Ġtexts": 9037,
      "rolled": 9038,
      "Ġparticipation": 9039,
      "Ġphenomenon": 9040,
      "ĠEngineering": 9041,
      "achusetts": 9042,
      "Ġtip": 9043,
      "uler": 9044,
      "Ġdisaster": 9045,
      "Ġviewed": 9046,
      "Ġequivalence": 9047,
      "Ġathlet": 9048,
      "rus": 9049,
      "Ġmanaging": 9050,
      "iously": 9051,
      "ackson": 9052,
      "Ġflying": 9053,
      "ĠDar": 9054,
      "ĠRand": 9055,
      "ĠKen": 9056,
      "Ġnonzero": 9057,
      "Ġcapabilities": 9058,
      "Ġdisplayed": 9059,
      "Ġoral": 9060,
      "Ġspat": 9061,
      "ourse": 9062,
      "ĠNonetheless": 9063,
      "Ġdiscrimination": 9064,
      "bf": 9065,
      "type": 9066,
      "Ġinher": 9067,
      "Ġallerg": 9068,
      "Ġ2021": 9069,
      "Ġconjug": 9070,
      "Ġeliminate": 9071,
      "ĠIreland": 9072,
      "Ġhal": 9073,
      "illy": 9074,
      "etary": 9075,
      "ĠWhich": 9076,
      "2011": 9077,
      "Ġlimitations": 9078,
      "Ġimaginary": 9079,
      "Because": 9080,
      "idity": 9081,
      "elcome": 9082,
      "ĠPass": 9083,
      "orses": 9084,
      "Ġirre": 9085,
      "Ġexpanded": 9086,
      "Sec": 9087,
      "iro": 9088,
      "Ġtension": 9089,
      "Ġ-\\": 9090,
      "irit": 9091,
      "Ġdetermination": 9092,
      "Ġsingular": 9093,
      "Ġconverges": 9094,
      "Ġupdates": 9095,
      "Ġfifth": 9096,
      "Ġreturning": 9097,
      "ribe": 9098,
      "Ġimprovements": 9099,
      "Ġdiagram": 9100,
      "Ġeager": 9101,
      "ĠIV": 9102,
      "Ġelsewhere": 9103,
      "iah": 9104,
      "Ġpreserve": 9105,
      "Ġreporting": 9106,
      "Ġengagement": 9107,
      "ĠOrder": 9108,
      "Ġemploying": 9109,
      "Ġgraduate": 9110,
      "iem": 9111,
      "tains": 9112,
      "inem": 9113,
      "ulous": 9114,
      "rog": 9115,
      "Ġsees": 9116,
      "Ġships": 9117,
      "nee": 9118,
      "Ġattitude": 9119,
      "Ġmechanisms": 9120,
      "Ġstruck": 9121,
      "Ġisolated": 9122,
      "bes": 9123,
      "ashed": 9124,
      "Ġislands": 9125,
      "ĠSS": 9126,
      "Ġvoc": 9127,
      "Ġmetab": 9128,
      "Ġsuffered": 9129,
      "Ġencountered": 9130,
      "Two": 9131,
      "kl": 9132,
      "ĠDise": 9133,
      "Ġneutral": 9134,
      "bec": 9135,
      "Ġelig": 9136,
      "ĠProper": 9137,
      "ocket": 9138,
      "Ġfrequent": 9139,
      "Ġgradually": 9140,
      "Ġpregnancy": 9141,
      "Ġweapons": 9142,
      "ĠID": 9143,
      "ĠPoly": 9144,
      "ĠKenn": 9145,
      "Ġindicating": 9146,
      "uine": 9147,
      "ĠJam": 9148,
      "Ġcuriosity": 9149,
      "Ġopens": 9150,
      "Ġaest": 9151,
      "ĠAI": 9152,
      "ĠFall": 9153,
      "Ġmembership": 9154,
      "Med": 9155,
      "Ġrom": 9156,
      "Ġunn": 9157,
      "Ġanymore": 9158,
      "Ġconstants": 9159,
      "Ġconsiderable": 9160,
      "ĠSwed": 9161,
      "pes": 9162,
      "working": 9163,
      "Ġsurve": 9164,
      "Ġwalked": 9165,
      "Phone": 9166,
      "Ġcounterpart": 9167,
      "made": 9168,
      "atre": 9169,
      "Ġbits": 9170,
      "Ġnull": 9171,
      "Ġdil": 9172,
      "ĠHay": 9173,
      "unicip": 9174,
      "ĠLiber": 9175,
      "Ġanalys": 9176,
      "Ġbeneficial": 9177,
      "ĠArabic": 9178,
      "Ġ_": 9179,
      "ĠPay": 9180,
      "ĠHoly": 9181,
      "Ġbio": 9182,
      "ĠPop": 9183,
      "abama": 9184,
      "Ġpharm": 9185,
      "ĠSmall": 9186,
      "Ġexpertise": 9187,
      "Ġwarning": 9188,
      "ĠSupreme": 9189,
      "Ġstrings": 9190,
      "Ġdescript": 9191,
      "Ġpropag": 9192,
      "brid": 9193,
      "Ġassets": 9194,
      "ĠFair": 9195,
      "ĠJoe": 9196,
      "apse": 9197,
      "ĠComb": 9198,
      "Ġelectro": 9199,
      "ĠâĪ«": 9200,
      "Ġmatching": 9201,
      "Ġcopies": 9202,
      "Ġfantastic": 9203,
      "Ġcouncil": 9204,
      "ications": 9205,
      "Ġreverse": 9206,
      "amber": 9207,
      "Ġshoes": 9208,
      "Ġeleg": 9209,
      "Ġcombat": 9210,
      "ĠAfghan": 9211,
      "iatric": 9212,
      "iability": 9213,
      "Ġtub": 9214,
      "ĠGall": 9215,
      "Ġcube": 9216,
      "Ġapplicable": 9217,
      "Ġargue": 9218,
      "Ġfavour": 9219,
      "Ġdataset": 9220,
      "Right": 9221,
      "elve": 9222,
      "ersion": 9223,
      "Ġweigh": 9224,
      "ĠHospital": 9225,
      "Ġneat": 9226,
      "Ġresil": 9227,
      "Ġprevention": 9228,
      "pack": 9229,
      "Ġwise": 9230,
      "Ġatom": 9231,
      "Ġrab": 9232,
      "jective": 9233,
      "omorphism": 9234,
      "=-": 9235,
      "di": 9236,
      "ĠMrs": 9237,
      "Ġbless": 9238,
      "Ġprofound": 9239,
      "Ġintervention": 9240,
      "Ġcorrel": 9241,
      "Ġinvestigate": 9242,
      "Ge": 9243,
      "Ġwidespread": 9244,
      "Ġargued": 9245,
      "Ġforests": 9246,
      "ĠDigital": 9247,
      "opt": 9248,
      "ĠRay": 9249,
      "ĠChall": 9250,
      "Ġcurriculum": 9251,
      "2008": 9252,
      "Ġsaved": 9253,
      "%)": 9254,
      "Ġprominent": 9255,
      "Ġderive": 9256,
      "Ġmeetings": 9257,
      "ĠCurrent": 9258,
      "Ġconvenient": 9259,
      "terior": 9260,
      "ĠGar": 9261,
      "ruit": 9262,
      "ften": 9263,
      "Ġmaintained": 9264,
[...]
